#version: 0.2
p o
po s
& a
&a pos
o u
t h
e n
a i
&apos ;</w>
r e</w>
a n
e s</w>
i n
q u
o n
e r</w>
l e</w>
e s
i s</w>
a r
&apos ;
d e</w>
a s</w>
o n</w>
e r
o u</w>
y ou</w>
th e</w>
n e</w>
t o</w>
e l
m e</w>
t i
j e</w>
a v
ou s</w>
r e
@ -
@- @</w>
es t</w>
e n</w>
e d</w>
c h
r i
a t</w>
e u
in g</w>
a l
en t</w>
o m</w>
qu e</w>
t e</w>
c e</w>
t r
o r
i l</w>
o m
l i
d i
p as</w>
s e</w>
l a</w>
T om</w>
p r
i t</w>
h e</w>
s u
e m
v ous</w>
n o
ai s</w>
i l
w h
a u
p l
&apos; t</w>
i n</w>
a n</w>
ai t</w>
u n</w>
l es</w>
e t</w>
a s
e z</w>
l &apos;</w>
s t
i t
t u</w>
a t
o f</w>
an t</w>
e v
a i</w>
n &apos;</w>
j &apos;</w>
po u
m o
th at</w>
a g
a m
c om
p ar
e t
e a
f o
e re</w>
é t
s i
l o
&apos; s</w>
t re</w>
c on
u ne</w>
el le</w>
v e</w>
a p
av e</w>
d &apos;</w>
ou t</w>
an d</w>
ou r</w>
a c
u s
a b
eu x</w>
r o
on s</w>
c o
i s
v o
t o
n ous</w>
d o
d o</w>
k e</w>
h ave</w>
a re</w>
l d</w>
h o
a y</w>
qu o
b e
th is</w>
en d
v i
c ou
w as</w>
i r</w>
qu &apos;</w>
u s</w>
d é
an s</w>
s o
t es</w>
w e</w>
a ti
fo r</w>
t s</w>
m y</w>
l y</w>
c i
s he</w>
d on</w>
on t</w>
g h
wh at</w>
no t</w>
h i
g o
f ai
an g
t er</w>
v er
y our</w>
c an</w>
s e
u n
pou r</w>
b e</w>
c &apos;</w>
on e</w>
pr o
e x
d es</w>
th e
l e
ou r
su is</w>
i c
s on</w>
no w</w>
p e
al l</w>
f r
ai n</w>
&apos; m</w>
a y
d ans</w>
b o
m ent</w>
é e</w>
è re</w>
p en
t ;</w>
quo t;</w>
& quot;</w>
gh t</w>
b i
em ent</w>
a r</w>
c h</w>
p er
l u
n e
a l</w>
a d</w>
d u</w>
f i
b u
m es</w>
a d
r es
s i</w>
it h</w>
t er
qu i</w>
ch o
ç a</w>
c u
w ith</w>
h is</w>
w ant</w>
i m
t u
r é
th er</w>
li ke</w>
al l
po r
p u
fai re</w>
pl us</w>
&apos; re</w>
th ing</w>
w or
M ar
m i
k now</w>
s &apos;</w>
a u</w>
t en
ai n
mo i</w>
the y</w>
eu r</w>
ét ait</w>
m &apos;</w>
th ere</w>
th in
f u
m on
l l</w>
n i
è s</w>
d e
ag e</w>
t out</w>
e c</w>
f or
h er</w>
ho w</w>
as s
ou ld</w>
av ec</w>
d ev
ou v
ti on</w>
p i
f ait</w>
r es</w>
s h
m on</w>
ê tre</w>
s om
ati on</w>
e l</w>
s es</w>
hi m</w>
ap p
a ke</w>
il s</w>
d ay</w>
t ed</w>
f f
em p
t ou
g i
us t</w>
r en
an d
g o</w>
g u
in e</w>
s er
et te</w>
pou r
en t
il l</w>
ar ri
on n
di d</w>
s ont</w>
o d</w>
k ing</w>
j our
es s
el l</w>
g r
v eux</w>
t emp
g et</w>
an ce</w>
h as</w>
ar d</w>
Mar y</w>
s t</w>
b l
quo i</w>
d n</w>
t é</w>
su r</w>
thin k</w>
ea u</w>
il l
qu el
ti me</w>
ai s
a te</w>
o k</w>
b le</w>
temp s</w>
n o</w>
ver y</w>
m u
d u
p ri
o p
lu i</w>
c ette</w>
&apos; ll</w>
m an
d er
bi en</w>
&apos; ve</w>
pr é
on ne</w>
s p
h ad</w>
av ez</w>
i e</w>
ev er</w>
ev er
ab out</w>
w ill</w>
o r</w>
i f</w>
tr av
h u
g ar
ou n
ê tes</w>
w ere</w>
tr ès</w>
di s
ab le</w>
ét é</w>
m ar
end re</w>
tr o
s ais</w>
ou l
m e
eu t</w>
en s</w>
d er</w>
f e
v en
m a</w>
c l
r s</w>
h ere</w>
av o
a f
s a</w>
en ts</w>
ch e</w>
c el
wh o</w>
vo tre</w>
r ai
bu t</w>
s o</w>
k s</w>
di t</w>
h eu
fr om</w>
b y</w>
t é
al ly</w>
f in
m in
a me</w>
u p</w>
p ar</w>
d s</w>
wh ere</w>
il le</w>
s or
n u
ic i</w>
d em
e ar
di dn</w>
ay s</w>
l on
par l
mo re</w>
m ais</w>
m a
er s</w>
e c
co me</w>
wh y</w>
j am
p eux</w>
li v
go od</w>
g e</w>
o ù</w>
k ed</w>
it u
s el
c es</w>
be au
a m</w>
t &apos;</w>
en d</w>
an y
w ould</w>
trav ai
r y</w>
r ais</w>
as t</w>
wh en</w>
re u
pour quoi</w>
j ust</w>
en ce</w>
é ri
avo ir</w>
an ts</w>
u e</w>
t al
som e
s em
go ing</w>
t y</w>
am i</w>
m er
h el
com ment</w>
i re</w>
en ti
b r
ever y
c r
l l
jam ais</w>
t on</w>
t ing</w>
t h</w>
j o
cho se</w>
st o
es s</w>
ea r</w>
w e
s eu
el les</w>
p h
i g
vo ir</w>
t ell</w>
se e</w>
per s
cou p</w>
é s</w>
w ay</w>
pen se</w>
o f
g s</w>
to i</w>
sh ould</w>
p re
f ri
au x</w>
v oul
e u</w>
t ous</w>
p eut</w>
cel a</w>
c ro
&apos; d</w>
ne ed</w>
com me</w>
v rai
su r
pl ea
p ass
be en</w>
st u
pl a
jour s</w>
ai me</w>
w i
h om
c ri
c or
av ait</w>
ai re</w>
po n
m ê
an y</w>
s ou
a ch
tr ain</w>
to o</w>
é r
w n</w>
v er</w>
m or
li s
d y</w>
c ar
vrai ment</w>
p e</w>
n er</w>
com m
av ons</w>
ai d</w>
re d</w>
plea se</w>
n ever</w>
au s
th an</w>
m an</w>
f a
con n
beau coup</w>
sel f</w>
l et</w>
t t
t om
mu ch</w>
hel p</w>
di re</w>
di ff
cou ld</w>
re ally</w>
mê me</w>
ch er</w>
pou v
t ri
re ad
pr endre</w>
av ais</w>
s ti
d r
ais s
par ti
ai r</w>
wor k</w>
quel que</w>
k e
all er</w>
t ake</w>
S ami</w>
ri ght</w>
es o
ci d
c k</w>
sp ea
ou ght</w>
ar g
ac k</w>
ri en</w>
c ar</w>
tr u
vi e</w>
qu and</w>
por t
m ai
g h</w>
end s</w>
w at
tro p</w>
re e</w>
on ly</w>
mon de</w>
in s</w>
el i
so me</w>
qu es</w>
go t</w>
com p
c er
por te</w>
j us
f er
b li
v a</w>
ne w</w>
l à</w>
i r
en f
b eso
at t
si on</w>
tu re</w>
qu es
parl er</w>
oun d</w>
o c
pe ti
m é
e p</w>
beso in</w>
re m
lo o
l et
co re</w>
t a</w>
o l</w>
fo is</w>
es e</w>
en core</w>
d eux</w>
t el
fu l</w>
dé j
v ais</w>
ti ons</w>
pers onne</w>
n ouv
j ou
h app
ang er</w>
é es</w>
lo t</w>
con tr
b re</w>
pr es
m ain
l é
f au
b er</w>
v u</w>
tou jours</w>
pu is</w>
r ê
l ement</w>
e p
bo dy</w>
som mes</w>
p ère</w>
lo ve</w>
l ang
d onn
pe u</w>
or s</w>
m er</w>
e y</w>
su p
re c
r a
o ther</w>
m ust</w>
f e</w>
c au
tr ou
so l
pr is</w>
n ing</w>
eu rs</w>
es n</w>
do esn</w>
do es</w>
an te</w>
ét ais</w>
tr ouv
cou r
b on</w>
ai ent</w>
some thing</w>
s en
pen s
in ter
r ait</w>
pr ès</w>
k es</w>
d es
ang e</w>
an s
vo y
vo itu
qu elle</w>
mai son</w>
m ake</w>
l ast</w>
i te</w>
hom me</w>
arri v
s a
lon g</w>
h ab
gi ve</w>
ch il
c re
arg ent</w>
t w
r ou
qu el</w>
mon ey</w>
el y</w>
co l
ch ez</w>
ê te</w>
read y</w>
re gar
b eli
av ant</w>
aus si</w>
ai ne</w>
w s</w>
v is
tr es</w>
su re</w>
r ent</w>
et s</w>
d re</w>
î t</w>
tu r
r ai</w>
pl u
do is</w>
ch i
b et
ho me</w>
g re
g l
fr an
œ u
the m</w>
spea k</w>
pe op
peop le</w>
pe c
lo ok</w>
as se</w>
any thing</w>
Mar ie</w>
to ld</w>
t ea
t a
ro om</w>
reu x</w>
par t</w>
f am
c lo
w ent</w>
w ays</w>
travai l</w>
so it</w>
ro w</w>
i le</w>
f ac
tr y</w>
s in
s ed</w>
pro bl
beli ev
au tre</w>
arri ve</w>
voitu re</w>
ten ant</w>
sem ble</w>
on g</w>
oc cu
n ed</w>
m at
l le</w>
it é</w>
fri end</w>
e as
u l
tt le</w>
pr om
o ld</w>
ni ght</w>
m is
is h</w>
al ways</w>
s ho
s ay</w>
re ad</w>
po in
no tre</w>
h e
ach et
ô t</w>
to day</w>
si ble</w>
s cho
r u
ou se</w>
man y</w>
main tenant</w>
m al
i on</w>
d re
w as
t en</w>
re t
j our</w>
dem and
cau se</w>
b us
b ack</w>
vi v
v es</w>
t e
s aid</w>
jour d&apos;</w>
hu i</w>
g er</w>
au jourd&apos;</w>
an t
F ren
sti ll</w>
st ar
s ans</w>
ri ez</w>
pro b
le ave</w>
it y</w>
fo re</w>
fi r
fa ther</w>
déj à</w>
bo ok</w>
at ten
al i
ac c
Fren ch</w>
tal k</w>
s le
qu i
of f</w>
k no
gi r
fin d</w>
com bien</w>
be fore</w>
b ro
tw o</w>
scho ol</w>
n ée</w>
l s</w>
l eur</w>
it s</w>
h ouse</w>
h av
com pl
at s</w>
ai mer
w on</w>
u r
th ought</w>
ma de</w>
li ttle</w>
le ar
fran ç
fau t</w>
f il
au c
ét u
we e
every thing</w>
e at</w>
believ e</w>
E n
B o
è me</w>
ven ir</w>
us ed</w>
un der
po li
m al</w>
f t</w>
c en
an c
y ing</w>
w ell</w>
par ents</w>
l aiss
d ét
b ou
w ri
w an
t ant</w>
p ho
no thing</w>
in d</w>
gr and</w>
franç ais</w>
f em
ear s</w>
b re
b onne</w>
an de</w>
tou tes</w>
si m
r a</w>
pu t</w>
pla ît</w>
pla ce</w>
liv re</w>
li ve</w>
li fe</w>
l a
in té
enf ants</w>
bet ter</w>
app el
s ait</w>
or y</w>
occu p
o b
l ate</w>
in to</w>
ic h</w>
happ y</w>
g lis
der ni
cer t
é cri
v ed</w>
seu l</w>
or row</w>
m ay</w>
heu res</w>
d ing</w>
ar rê
aimer ais</w>
é co
éco le</w>
wan ted</w>
t ement</w>
s û
s m
ou gh</w>
o se</w>
mo st</w>
lang u
c k
C h
étu di
v ou
ren contr
l or
is n</w>
h ap
ess ay
di c
d or
d ed</w>
cou n
c ame</w>
ai de</w>
ag er</w>
st and</w>
our s</w>
mu si
mi eux</w>
g e
fe el</w>
d in
c le</w>
at ed</w>
ag ain</w>
a près</w>
wi th
the ir</w>
th ese</w>
st on</w>
m ati
im port
hi er</w>
h ard</w>
fir st</w>
en c
Bo ston</w>
ç on</w>
z e</w>
v it
t ôt</w>
res s
ph one</w>
pass é</w>
p end
m ag
lor s
jus te</w>
al one</w>
tou te</w>
to ok</w>
t ez</w>
peti t</w>
m om
jo b</w>
end u</w>
en n
do g</w>
cid ent</w>
a way</w>
é n
é g
vo s</w>
u ti
tom orrow</w>
si st
lo w
glis h</w>
fu t</w>
dé e</w>
dem ain</w>
d û</w>
d ent</w>
c ap
bu y</w>
b or
ar y</w>
ang l
a de</w>
En glish</w>
é l
wh ich</w>
vi ens</w>
su c
pouv ez</w>
nu it</w>
m ère</w>
le ft</w>
ig n
i se</w>
hu r
en ough</w>
chi en</w>
ass ez</w>
angl ais</w>
a z
œu r</w>
tro is</w>
th ree</w>
se en</w>
s ouv
pro f
pre mi
por t</w>
mom ent</w>
j u
i d</w>
f l
dre n</w>
d ou
c et</w>
a le</w>
with out</w>
w in
travai ll
s tr
s ci
pos e</w>
o ver</w>
m et
il y</w>
h ed</w>
chil dren</w>
b ar
as s</w>
ag es</w>
y s</w>
ver s
un i
sto p</w>
ques tion</w>
pos sible</w>
pen ed</w>
p ic
o ri
min u
ev en</w>
do or</w>
cho ses</w>
c an
ati ons</w>
al ready</w>
ai der</w>
ac cident</w>
pl o
i de
g en
f ille</w>
f ais</w>
ea d</w>
d ro
d one</w>
ch er
ch ang
be cause</w>
té lé
thin gs</w>
sor ry</w>
s ent</w>
par le</w>
p ati
ou bli
n on</w>
fi ci
ex ac
dr in
do wn</w>
do ing</w>
ch am
ain s</w>
ai m
af ter</w>
F r
y ears</w>
under stand</w>
to r</w>
s é
s al
re z</w>
n ame</w>
mo ther</w>
mo ins</w>
m y
em ber</w>
ec i</w>
ch é</w>
c i</w>
c eci</w>
au rais</w>
as ked</w>
wee k</w>
wat er</w>
vo l
v eu
v e
so ir</w>
seu le</w>
sa w</w>
p eur</w>
ever y</w>
con t
w er</w>
voul ez</w>
t eur</w>
s avoir</w>
quel ques</w>
quel qu&apos;</w>
p le</w>
min d</w>
m et</w>
loo king</w>
ke ep</w>
heu re</w>
g ro
g ens</w>
f ro
en tr
en ne</w>
em s</w>
diff ic
dev rais</w>
d is</w>
bus y</w>
be ing</w>
b est</w>
au gh
J ap
I n
wor ld</w>
w al
v eut</w>
sim pl
ques tions</w>
poin t</w>
pl eu
pl an
of ten</w>
n om</w>
m is</w>
li re</w>
fem me</w>
de puis</w>
d ri
c in
c all</w>
b ri
au v
atten tion</w>
voul ais</w>
u se</w>
trou ve</w>
ti mes</w>
tea cher</w>
souv ent</w>
pré ci
pro du
pl an</w>
pen sais</w>
p li
o l
lo st</w>
k en</w>
ide a</w>
heu reux</w>
e y
dé sol
do it</w>
co ld</w>
cho i
an k</w>
w ai
t eau</w>
t able</w>
pu is
nouv eau</w>
mar i
m anger</w>
i dée</w>
fai tes</w>
es ter
e i
do c
res pon
pu l
pri se</w>
pi è
parti r</w>
nu m
k new</w>
j eu
j ec
h and
ex t</w>
e f
ch ance</w>
y oun
y ester
yester day</w>
w om
v ent</w>
ti ve</w>
si de</w>
pré f
pl ay</w>
import ant</w>
gre at</w>
f on
every one</w>
es p
er re</w>
e b
diffic ul
demand é</w>
c ess
b us</w>
b ed</w>
ay ing</w>
au tres</w>
at o
ét aient</w>
se cre
s k
re ment</w>
r ant</w>
qu er</w>
pend ant</w>
p t</w>
p ed</w>
li t</w>
fr aid</w>
for m
ex c
con du
bo o
as k</w>
ai se</w>
a fraid</w>
D an</w>
w r
v éri
sor ti
simpl ement</w>
sem aine</w>
s ing</w>
ré pon
ri r</w>
rem ember</w>
pr ê
on ce</w>
mor t</w>
me ill
m il
l un
hab itu
h ear</w>
g et
eu se</w>
en tre</w>
d i</w>
c at</w>
be g
arri ed</w>
all é</w>
achet er</w>
a th
P ar
Fr ance</w>
wor d</w>
w ar
vi e
ver s</w>
t ly</w>
s avais</w>
r el
probl ème</w>
pho to</w>
per du</w>
o th
n é</w>
n ext</w>
m ine</w>
inter es
i ez</w>
h or
h ar
er a</w>
e ful</w>
cou rs</w>
ch es</w>
b ad</w>
a do
w ants</w>
tur n</w>
tr ans
ti onn
s é</w>
ret ard</w>
res t
pr in
n om
me et</w>
m arried</w>
li g
li e</w>
l ais
jus qu&apos;</w>
j et</w>
i d
hi sto
fe w</w>
f ound</w>
f fici
et tes</w>
eas y</w>
drin k</w>
cro is</w>
cor rec
con se
ch em
ch ar
c are</w>
b at
ar ti
ag ne</w>
a po
é tr
y et</w>
v rai</w>
t el</w>
st ay</w>
s au
ou t
lo w</w>
let tre</w>
derni ère</w>
d res
cu l
con si
comm enc
ch ev
bre a
é ren
youn g</w>
y ez</w>
y eux</w>
wh ile</w>
w ea
trouv é</w>
trouv er</w>
th ose</w>
ter s</w>
su i
st ory</w>
ser a</w>
s tru
s ens</w>
pen ses</w>
p u</w>
p ays</w>
p ay
p ap
mor ning</w>
let ter</w>
k ind</w>
inté ress
f ast</w>
every body</w>
ear ly</w>
ea ch</w>
de c
d é</w>
d ents</w>
cou l
auc un</w>
an im
acc ep
ac cor
è res</w>
è rent</w>
y our
wr ong</w>
u re</w>
tru th</w>
s mo
rai son</w>
pr ends</w>
peti te</w>
par t
my self</w>
l ar
kno ws</w>
il les</w>
i es</w>
hav ing</w>
hap pened</w>
for t</w>
ffici le</w>
f ar</w>
doc tor</w>
di fficile</w>
dev en
cham bre</w>
ch ing</w>
ch an
ar ound</w>
a w
a que</w>
é ti
wat ch</w>
w on
ven u</w>
v in
v ille</w>
t y
t ard</w>
sorti r</w>
sm all</w>
sle ep</w>
si g
s hi
s an
s ame</w>
r ap
prob ab
piè ce</w>
par ty</w>
p ay</w>
oul dn</w>
o k
ne e
n is</w>
minu tes</w>
m en
m ang
lors que</w>
lear n</w>
in vit
in gs</w>
h ors</w>
fac ile</w>
ex am
em plo
dev ons</w>
conn a
ch ange</w>
at ing</w>
app elle</w>
ap préci
ant age</w>
an other</w>
y ear</w>
w ait</w>
uti lis
tur ned</w>
to ge
toge ther</w>
ti red</w>
tal king</w>
sû r</w>
suc c
stu pi
st ation</w>
so is</w>
s ent
r er</w>
no s</w>
ne i
m self</w>
loo ks</w>
l ing</w>
im ag
i ons</w>
hi mself</w>
et ing</w>
es te</w>
eb a</w>
dor m
d ays</w>
cro ire</w>
ato eba</w>
ap prendre</w>
al is
a se</w>
T atoeba</w>
é cou
your self</w>
vi ce</w>
tr ue</w>
su ch</w>
st s</w>
sen ten
s itu
reu se</w>
pro pos
pro ch
per son</w>
op in
onn es</w>
man i
m ain</w>
liv es</w>
li st
le c
in dre</w>
i ght</w>
histo ire</w>
h on
g ave</w>
fro id</w>
es se</w>
di x</w>
cu ri
con tre</w>
ch at</w>
c am
c all
boo ks</w>
ay ed</w>
auc une</w>
arriv é</w>
ar en</w>
Par is</w>
è te</w>
was n</w>
véri té</w>
vou d
viv re</w>
vi ent</w>
u i</w>
ter n
si ons</w>
s y
s w
s ous</w>
res pec
qu é</w>
pre t
por ter</w>
pi an
op en</w>
ni ce</w>
lon g
l ess</w>
jeu ne</w>
ill ed</w>
ig no
i li
h un
h ear
gir l</w>
g g
fe el
fa ce</w>
f en
diff er
di st
d en
conn aiss
con cer
com prendre</w>
com ing</w>
cel ui</w>
c ent</w>
beau ti
b it</w>
any more</w>
ac t</w>
é ni
voy age</w>
vi te</w>
vi r
vi end
v ue</w>
v ac
th é
t re
si te</w>
s how</w>
ri s
r ain</w>
qu it
prob le
proble m</w>
po pul
p s</w>
o ff
no body</w>
mati n</w>
ma kes</w>
li kes</w>
lang ue</w>
l é</w>
jour née</w>
is t</w>
ill é</w>
hav en</w>
happ en</w>
fri ends</w>
fam ille</w>
ent re
en semble</w>
e ff
déj eu
cu is
coul dn</w>
c ed</w>
c al</w>
c al
bi r
b all</w>
an ces</w>
A n
y er</w>
win do
wai ting</w>
vo is</w>
us es</w>
tr er</w>
t ête</w>
t our</w>
sist er</w>
sin ce</w>
secre t</w>
s et</w>
s enti
rest au
restau rant</w>
re f
pu bli
p éri
p ain</w>
ou ver
o le</w>
n our
n i</w>
mo t</w>
mi st
m ing</w>
long temps</w>
lo in</w>
langu age</w>
it al</w>
is hed</w>
in tel
in st
h er
get ting</w>
gar çon</w>
f ête</w>
enf ant</w>
dis pos
di e</w>
dem ande</w>
conn ais</w>
ch au
c af
beauti ful</w>
b ought</w>
av antage</w>
au tant</w>
at h</w>
ar s</w>
ai e</w>
achet é</w>
a ce</w>
é li
v as</w>
travai lle</w>
star ted</w>
si x</w>
si r</w>
seu lement</w>
s po
s pi
s ons</w>
read ing</w>
pri e</w>
pour rait</w>
pour rais</w>
poli ce</w>
p ain
ou s
o h
mé dec
met tre</w>
m ou
lais se</w>
ho pe</w>
h ô
h and</w>
gr and
g ag
fr ère</w>
fo l
fil les</w>
f ree</w>
ex per
er ed</w>
er ai</w>
d ont</w>
d onne</w>
coun try</w>
co û
ch aque</w>
can not</w>
c lu
bro ther</w>
b é</w>
ap par
all ez</w>
al ement</w>
ai lle</w>
écri t</w>
é ch
wri te</w>
un der</w>
télé phone</w>
tt en</w>
ta x
t ain</w>
situ ation</w>
si ve</w>
s er</w>
r é</w>
pian o</w>
pens é</w>
par ce</w>
p eu
p asse</w>
n at
mis s</w>
me eting</w>
liv res</w>
in form
i er</w>
i de</w>
gu e</w>
fr u
f all
er reu
ent endu</w>
en se
désol é</w>
do ll
diff éren
di tes</w>
di rec
di at
chil d</w>
c as
bo y</w>
bi g</w>
b les</w>
0 0</w>
î ner</w>
wor king</w>
v ing</w>
us tr
ter ri
t on
su b
some one</w>
se con
s il
s av
rou gh</w>
r end
premi er</w>
opin ion</w>
o wn</w>
o t</w>
nouv elle</w>
médec in</w>
mi ght</w>
m éri
in ten
igno re</w>
ic y
i ds</w>
hear t</w>
h ours</w>
gr ande</w>
g n
fam ily</w>
f ati
e e</w>
donn é</w>
difficul t</w>
d avantage</w>
co ff
chev eux</w>
be come</w>
b icy
att end
at es</w>
at er</w>
arrê ter</w>
any one</w>
am ou
ain es</w>
ado re</w>
. .</w>
wor ds</w>
wea ther</w>
v él
un ti
unti l</w>
u t</w>
ti que</w>
t in
su jet</w>
so yez</w>
si ck</w>
ser v
sci enti
s œur</w>
s s</w>
s avez</w>
ri ch</w>
regar de</w>
r endre</w>
pres que</w>
n er
mat ter</w>
m s</w>
m ess
m ent
l ed</w>
jou e</w>
ey es</w>
el lement</w>
dét este</w>
déjeu ner</w>
dres s</w>
doll ars</w>
din ner</w>
dev rait</w>
cu t</w>
col ère</w>
ch e
car eful</w>
c œur</w>
bo th</w>
b é
b elle</w>
b eau</w>
b an
ay la</w>
an ese</w>
am is</w>
L ayla</w>
Jap anese</w>
. ..</w>
è mes</w>
w ish</w>
w ard</w>
voul ait</w>
vi eux</w>
v it</w>
tri ed</w>
travaill er</w>
tel lement</w>
t or
sup pose</w>
su l
su ff
stu dy</w>
so on</w>
se ems</w>
s on
ri ture</w>
ri ons</w>
pouv ons</w>
pen d</w>
pe ine</w>
occup é</w>
nour riture</w>
n é
meill eur</w>
mani ère</w>
li ght</w>
li eu</w>
k is
is te</w>
intel lig
ill ez</w>
il es</w>
he ard</w>
he al
h ate</w>
h air</w>
fil m</w>
fati gu
f un</w>
f el
essay er</w>
enn ent</w>
em ents</w>
di ed</w>
d ang
cou ver
call ed</w>
c li
bar r
b al
au t</w>
att endre</w>
ans wer</w>
am ie</w>
all ons</w>
al most</w>
ai res</w>
accor d</w>
O h</w>
N o
D i
A ustr
wom an</w>
wi fe</w>
u ro
té s</w>
tr ai
thin king</w>
ten nis</w>
ten ir</w>
t our
su m
so lu
sle ep
se e
s éri
s se</w>
s pe
s af
ri st
r om
préf ér
pret ty</w>
premi ère</w>
pr ess
po is
plu tôt</w>
parti e</w>
p er</w>
p an
oubli é</w>
n ess</w>
n ager</w>
mer ci</w>
m it</w>
m ay
lors qu&apos;</w>
lo gi
l augh
kno wn</w>
jou er</w>
inform ation</w>
i tion</w>
gir ls</w>
fu ture</w>
for get</w>
fo od</w>
fin ished</w>
fin i</w>
fi ve</w>
fe c
f ils</w>
ex pec
dé cid
dev ez</w>
de hors</w>
de cid
dang er
d on
con fi
comp te</w>
comp any</w>
com es</w>
coff ee</w>
cl ass</w>
caf é</w>
bu il
bor n</w>
ati ve</w>
apo n</w>
an g</w>
ad u
ac ti
a pon
a k
J apon</w>
E uro
écri re</w>
vél o</w>
vis it</w>
vis it
u p
u es</w>
tr ying</w>
th rough</w>
th ank</w>
sup pos
sui v
ser ait</w>
res ter</w>
regar d
re au</w>
qu at
probl èmes</w>
pr en
pouv ait</w>
pl e
or din
ob jec
n or
n es</w>
mal ade</w>
liv ed</w>
le av
laiss er</w>
l ent</w>
in ess</w>
in es</w>
im porte</w>
ill age</w>
ho t</w>
g le</w>
for ts</w>
fi re</w>
fi ce</w>
fel t</w>
f it</w>
exper i
en ing</w>
dev riez</w>
d augh
con que</w>
con f
c tion</w>
c ity</w>
c er</w>
bu reau</w>
bu r
bl ess
b as</w>
ac tu
J oh
G er
A l
éti ez</w>
â teau</w>
we en</w>
wal k</w>
voud rais</w>
veu illez</w>
u m
ty pe</w>
tri p</w>
ti on
th ir
stu dents</w>
ré f
rou ge</w>
ren d</w>
prom ise</w>
pri t</w>
pou voir</w>
plu ie</w>
pi e
pho to
pens ez</w>
p ing</w>
of fice</w>
o ver
num ber</w>
nouv elles</w>
musi que</w>
mon t
mo ts</w>
mo is</w>
main s</w>
mag as
m au
liv ing</w>
laiss é</w>
l er</w>
l ait</w>
ke y</w>
interes ted</w>
inten tion</w>
in t</w>
imag in
i st
i ous</w>
i di
i c</w>
habitu de</w>
h ead</w>
fi gu
fe u</w>
f ish</w>
f in</w>
f ic
f ell</w>
ex péri
ent endre</w>
end ro
en nu
en jo
du r</w>
decid ed</w>
d îner</w>
cl asse</w>
ck et</w>
b on
ati on
at tr
at eur</w>
ap pris</w>
ang ry</w>
am our</w>
al ors</w>
ac k
T V</w>
M on
Jap an</w>
3 0</w>
ê cher</w>
é p
ç ons</w>
y ours</w>
wor ry</w>
wh ole</w>
w ouldn</w>
v in</w>
uni vers
u su
tu res</w>
ter min
t elle</w>
sw im
sur pri
so ci
san té</w>
s ac
re as
r un
quat re</w>
puis se</w>
prê t</w>
prof ess
pour riez</w>
po s</w>
peu vent</w>
pens er</w>
pass er</w>
ou i</w>
ne ws</w>
musi c</w>
mil k</w>
mau vais</w>
mar ché</w>
m ents</w>
li c
laiss ez</w>
la quelle</w>
l ev
j et
i ti
i que</w>
i ent</w>
h ind</w>
h as
h al
h ai
gl ad</w>
fo re
f low
es père</w>
entre prise</w>
en ces</w>
el se</w>
el s</w>
ea l</w>
d et
d ar
c at
c ass
be hind</w>
b res</w>
b as
arriv ed</w>
ar t</w>
appel er</w>
an née</w>
an n
am us
am ment</w>
ag o</w>
ad vice</w>
ab les</w>
a che</w>
In tern
A mer
1 0</w>
won der</w>
windo w</w>
w ine</w>
v illage</w>
trou ble</w>
ton ight</w>
ti c</w>
tax i</w>
t rem
su n
sto re</w>
star t</w>
st and
ser ai</w>
sen se</w>
réf lé
réflé ch
rencontr er</w>
regar der</w>
re ci
r ais
r ac
pri x</w>
pr on
po or</w>
po m
pers onnes</w>
pati ent</w>
p re</w>
p auv
oth ers</w>
o t
o ir</w>
ne l</w>
mon tre</w>
may be</w>
m us
lar ge</w>
l es
k illed</w>
im mé
ign or
i a</w>
hur ry</w>
g éni
g ame</w>
fu mer</w>
fru it</w>
for t
fen être</w>
fa çon</w>
exac tly</w>
ex pli
endro it</w>
en voy
en ir</w>
e aux</w>
dé r
de ath</w>
d d
d anger</w>
commenc é</w>
clo se</w>
ck y</w>
cin q</w>
ci r
cert ain</w>
c ré
c le
c ake</w>
bet ween</w>
barr ass
b lo
b ab
ass es</w>
apon ais</w>
ap poin
ain st</w>
ain si</w>
ag ainst</w>
af fai
ad mi
Joh n</w>
2 0
1 9
â ge</w>
z ed</w>
wor ks</w>
wom en</w>
wi m</w>
wat ching</w>
w er
vi sion</w>
v é
tr adu
tom ber</w>
th en</w>
swim ming</w>
sti tu
senten ce</w>
sem bl
s wim</w>
s te</w>
s ati
sati s
ré us
rou te</w>
ro ad</w>
ri ère</w>
ri te</w>
ri che</w>
ret our
r un</w>
r ing</w>
r am
pu ter</w>
profess eur</w>
pr u
pr end</w>
pr end
p un
né cess
no ir</w>
n ear</w>
mo y
magas in</w>
mag az
m auv
m ange</w>
l u</w>
l eurs</w>
l av
in d
hur t</w>
heu reuse</w>
hand s</w>
hab ite</w>
gu ess</w>
f s</w>
f lu
f lo
f er</w>
exac tement</w>
es ti
erreu r</w>
ense ign
en vie</w>
emplo i</w>
e f</w>
dri ve</w>
dorm ir</w>
don c</w>
dis cu
derni er</w>
der rière</w>
daugh ter</w>
d ate</w>
d ance</w>
correc t</w>
con di
co st</w>
chem in</w>
c é
c s</w>
bu t
brea k</w>
b ag
ar ro
an ni
a di
Di eu</w>
î tre</w>
ér o</w>
é pou
ç u</w>
w o
ven ue</w>
us h</w>
un k</w>
th s</w>
ter re</w>
t ent</w>
sû re</w>
surpri sed</w>
smo king</w>
ser ais</w>
scienti fi
s s
s pec
s avait</w>
res te</w>
rencontr é</w>
publi c</w>
proch ain</w>
probl ems</w>
pl aying</w>
pay er</w>
parl ez</w>
ne cess
mo vie</w>
mi di</w>
mess age</w>
mar che</w>
mang é</w>
ma king</w>
lun ch</w>
lu cky</w>
loo ked</w>
langu es</w>
j e
intellig ent</w>
inst ant</w>
hom mes</w>
g é</w>
g âteau</w>
g y</w>
fr app
for got</w>
fem mes</w>
fatigu é</w>
fai m</w>
f av
f as
expéri ence</w>
ex pl
er min
end ed</w>
en g
em br
ef forts</w>
ec t</w>
désol ée</w>
décid é</w>
der ed</w>
cu r
cr u
cr az
cl ear</w>
choi x</w>
chau d</w>
c tu
bou lot</w>
bl ack</w>
bicy cle</w>
bi li
bab y</w>
b â
ar i
any body</w>
an e</w>
amou reux</w>
al s</w>
ain ing</w>
ai mes</w>
ai ls</w>
é qui
é cr
è rement</w>
è ne</w>
y o</w>
y es</w>
wri tten</w>
w ing</w>
ver re</w>
vac ances</w>
utilis er</w>
un ion</w>
télé vision</w>
tr om
to wn</w>
to p</w>
ti ent</w>
ta king</w>
t ée</w>
t ats</w>
sum mer</w>
su res</w>
stu dent</w>
some times</w>
sleep ing</w>
sim ple</w>
sho t</w>
shi r
sh or
s pend</w>
s car
ré par
respon s
res se</w>
ra ther</w>
ra se</w>
r an</w>
qu ite</w>
pré sen
probab ly</w>
pro pos</w>
ph rase</w>
parl é</w>
p é</w>
p ped</w>
p es</w>
p ai
ous ly</w>
or der</w>
ok yo</w>
no on</w>
mil li
m ets</w>
m en</w>
lon ger</w>
lo se</w>
list en</w>
li ez</w>
li bre</w>
lear ned</w>
l è
l ou
l ater</w>
ke pt</w>
immé diat
immédiat ement</w>
im pres
ic k
hi gh</w>
heal th</w>
he av
h é
h ing</w>
h am
gar çons</w>
g enti
g are</w>
g ar</w>
fi ed</w>
fer ai</w>
f our</w>
f ou
f ont</w>
essay é</w>
em barrass
e g
dé ci
donn er</w>
dis pose</w>
differ ent</w>
dar k</w>
d ly</w>
d ead</w>
cuis ine</w>
craz y</w>
cou ple</w>
conna ît</w>
confi ance</w>
condu ire</w>
con tri
con stru
com pris</w>
ci er</w>
choi ce</w>
char ge</w>
ch ed</w>
ch arg
cert ains</w>
c ô
c us
c eux</w>
bé bé</w>
bi ère</w>
be came</w>
b es</w>
au to
appréci e</w>
app reci
an tes</w>
ag it</w>
ab and
T okyo</w>
M r</w>
Intern et</w>
A p
ë l</w>
él è
è que</w>
z z
y ed</w>
w ro
wro te</w>
vo ici</w>
ti mi
tel ling</w>
sé curi
sécuri té</w>
suppos ed</w>
suc re</w>
su s</w>
su per
su ite</w>
su gar</w>
stupi d</w>
sto od</w>
spea king</w>
sou hai
sor te</w>
si bili
sci ence</w>
s ound</w>
s it</w>
s c
s aying</w>
ré ve
ri ed</w>
ra di
r endu</w>
r ar
pré par
pl eas
pl ai
pic ture</w>
per dre</w>
pen sive</w>
pati ence</w>
par a
p é
p ast</w>
onn é</w>
on es</w>
occup ée</w>
o pened</w>
nécess aire</w>
nee ds</w>
n y</w>
mist ake</w>
mis sed</w>
m é</w>
lu tion</w>
le il</w>
l i</w>
l friend</w>
l and</w>
ke ys</w>
k et</w>
it ed</w>
im possible</w>
i rs</w>
hu m
hal f</w>
h y
h it</w>
gu y</w>
gr ou
gir lfriend</w>
g én
g one</w>
fu ll</w>
fon c
flo or</w>
f our
experi ence</w>
ex pensive</w>
er ais</w>
ent ôt</w>
ent y</w>
en vir
en te</w>
eas ily</w>
e w</w>
donn ez</w>
dev ant</w>
de ci
d om
d ge</w>
d enti
concer t</w>
con v
con ten
con cen
comp ag
comm ence</w>
com puter</w>
clo ck</w>
cho col
cher che</w>
ch aus
ch ap
cap able</w>
c ked</w>
c ad
bus iness</w>
bo ys</w>
bo x</w>
bo ire</w>
bi entôt</w>
be er</w>
b er
au rait</w>
attr ap
arri ver</w>
ap pro
ap pe
al so</w>
ai rs</w>
ag no
af faire</w>
T erre</w>
Euro pe</w>
Ch rist
Ch in
Amer ic
A r
œ il</w>
ô le</w>
î te</w>
étudi ants</w>
ér er</w>
è tement</w>
â mes</w>
wh e
wer en</w>
was h</w>
voul ons</w>
vin g
viend ra</w>
ven us</w>
v ê
v is</w>
v en</w>
ur g
ti cket</w>
ti ce</w>
thin ks</w>
th es</w>
th day</w>
ter noon</w>
t ree</w>
t ab
st ri
st op
spe e
sou viens</w>
sor t</w>
sor t
ser ez</w>
saf e</w>
s li
s ement</w>
ré union</w>
ri re</w>
res semble</w>
ra con
r eli
r as
probab lement</w>
pro pre</w>
pr ou
pouv ais</w>
ple in</w>
pl om
pi re</w>
par fois</w>
ori g
ordin ateur</w>
o y
o ds</w>
num éro</w>
nei ge</w>
nee ded</w>
mauv aise</w>
m am
low ed</w>
leav ing</w>
langu ages</w>
k ill</w>
iti é</w>
ir ai</w>
invit ed</w>
interes ting</w>
in ven
in side</w>
in er</w>
il ement</w>
hun gr
hungr y</w>
ho tel</w>
ho sp
h our</w>
gro s</w>
gr at
g ing</w>
g er
flow ers</w>
fl eurs</w>
feel ing</w>
f ine</w>
ex plo
ess aie</w>
ent ly</w>
e il</w>
dro it</w>
dev rions</w>
cô té</w>
cour ant</w>
contri bu
cont in
con st
com prends</w>
co ll
clo thes</w>
ci eux</w>
chang ed</w>
ch ats</w>
ch ant
cau ght</w>
c aus
c ats</w>
c ase</w>
bro ke</w>
bo îte</w>
bir thday</w>
b out</w>
at ti
at en</w>
appreci ate</w>
anim al</w>
an ti
al ité</w>
ai l</w>
ag ree</w>
ad v
a kes</w>
M i
I tal
G od</w>
E ar
C on
Austr ali
A méri
ê tres</w>
ét o
équi pe</w>
wor ked</w>
wh ose</w>
w ed</w>
vi site</w>
vi ol
vers aire</w>
v aut</w>
us é</w>
um br
umbr el
té lé</w>
tu er</w>
trou ver
tou ch</w>
tionn aire</w>
th y</w>
tea m</w>
t at
t ar
sur viv
suff is
str ong</w>
sp ent</w>
so l</w>
smo ke</w>
si ez</w>
shir t</w>
sh ouldn</w>
se a</w>
s mar
s and
s ai
run ning</w>
ro ck</w>
ren trer</w>
re ali
re al</w>
prof es
pri v
pres ent</w>
pren ez</w>
pre fer</w>
pos er</w>
photo s</w>
pap er</w>
p is
p as
out side</w>
o is
necess ary</w>
mon th</w>
mari er</w>
mar cher</w>
man qu
m oun
low ing</w>
li se</w>
li ked</w>
li es</w>
li br
le ast</w>
jour n
j aponais</w>
it ted</w>
in stru
in qui
in di
idi ot</w>
hô tel</w>
hosp ital</w>
hap pen
h au
h at</w>
gén ér
gro sse</w>
gh ts</w>
g au
fu rent</w>
fr ont</w>
fai sons</w>
fai sait</w>
fac ilement</w>
f un
f re
f avo
favo rite</w>
ev ening</w>
eu sement</w>
et h</w>
et ely</w>
em and</w>
ei ther</w>
e a</w>
discu ter</w>
di v
deven ir</w>
d ans
cour se</w>
conna ître</w>
compl ètement</w>
compl etely</w>
commenc er</w>
co p
co ol</w>
co at</w>
clo sed</w>
chem ise</w>
chang é</w>
ch anger</w>
ch anc
car te</w>
c u</w>
c ks</w>
c elle</w>
bli oth
bl an
bi blioth
beg in
beg an</w>
b ons</w>
b and</w>
b a
av enir</w>
atten d</w>
arti cle</w>
arro g
anni versaire</w>
anc er</w>
all emand</w>
all ait</w>
affai res</w>
af ternoon</w>
ad vis
ad resse</w>
ab solu
ab or
a p</w>
N ew</w>
M .</w>
Ger man</w>
E x
C an
A h</w>
étr anger</w>
én er
è de</w>
z ar
wri ting</w>
wh at
voy ez</w>
veu lent</w>
v re</w>
v ont</w>
v ité</w>
v end
v al
us ing</w>
u m</w>
tro du
trav ers</w>
tr a</w>
tom b
ti es</w>
th re
th er
terri ble</w>
tal ked</w>
t ation</w>
t aille</w>
sy m
succ e
stupi de</w>
st e
st ayed</w>
spo ke</w>
spea ks</w>
sor s</w>
sle pt</w>
si eurs</w>
ser vi
secon d</w>
s qu
s now</w>
répon se</w>
ré sou
ri eur</w>
reas on</w>
re ti
re gre
re co
rap id
radi o</w>
qui conque</w>
propos ition</w>
prom is
produ c
pr ête</w>
pois son</w>
plu sieurs</w>
plu part</w>
pleu rer</w>
pl ays</w>
pl ac
pie ds</w>
per fec
pe in
pauv re</w>
par viens</w>
par k</w>
or k</w>
o bli
n et
meill eu
man che</w>
m ée</w>
m em
m as</w>
lo ved</w>
lo ir</w>
libr ary</w>
li er</w>
le gs</w>
kis s</w>
k fast</w>
jec t</w>
j eu</w>
it es</w>
in vol
in trodu
in o
in no
im me
ic al</w>
hô p
hor ri
ho ld</w>
has n</w>
h onn
gu it
gl asses</w>
gi e</w>
gen re</w>
g ets</w>
g an
ey e</w>
exam en</w>
ex ist
ex er
envoy é</w>
ent end
embr ass
ec k</w>
dé si
dr unk</w>
cu se</w>
cour age</w>
cour ag
cont ent</w>
con om
comm un
comm and
col lec
co ok</w>
cle an</w>
cl és</w>
cin é
ci p
ci el</w>
cher ch
cat ch</w>
c is
c ard</w>
c ach
buil ding</w>
brea kfast</w>
bou te
biblioth èque</w>
bi zar
b el
av ance</w>
au tour</w>
appel é</w>
an ks</w>
am éli
ain ed</w>
af fi
ad dress</w>
Y ork</w>
S t
No ël</w>
J ane</w>
Ear th</w>
étr ang
ég alement</w>
é cl
â tre</w>
â che</w>
y si
y o
whe ther</w>
what ever</w>
w in</w>
vou loir</w>
voitu res</w>
vo lon
vi es</w>
vi c
ver se</w>
v ement</w>
umbrel la</w>
té es</w>
tu é</w>
trem bl
trav er
tr ust</w>
tom bé</w>
ti f</w>
termin é</w>
ta kes</w>
t ears</w>
sur pris</w>
suffis amment</w>
succ ès</w>
su n</w>
su gg
stu me</w>
star s</w>
stand ing</w>
st es</w>
sou ff
some where</w>
so i
sig ni
si dent</w>
sho es</w>
sh all</w>
ser vice</w>
ser t</w>
senten ces</w>
sel on</w>
sa c</w>
s pr
ré sul
ré p
ri ver</w>
ri de</w>
respec t</w>
rend ez</w>
re g
rapid ement</w>
r appelle</w>
pré sent
produ it</w>
pr un
pr ouv
pr ati
pr acti
pos te</w>
poli ti
pl y</w>
pl ayed</w>
pl ay
pl ais
pi ed</w>
ph ysi
part i</w>
para pluie</w>
pan ish</w>
p at
p a
ouv rir</w>
oun ds</w>
on ed</w>
o w
o per
nom bre</w>
no v
nei gh
musi ci
moun tain</w>
mo indre</w>
minu te</w>
mar ry</w>
man que</w>
magaz ine</w>
ma ch
m eu
m enti
lu mi
lear ning</w>
laugh ing</w>
l les</w>
l is</w>
l ine</w>
l in
ke ep
k o</w>
k ids</w>
k er</w>
jus tice</w>
jo in</w>
inté rê
inno cent</w>
ind a</w>
in stitu
imag ine</w>
im pli
il o
i m</w>
i dent</w>
i ce</w>
hôp ital</w>
hom as</w>
hi story</w>
her self</w>
heav y</w>
gu es</w>
gi ven</w>
gen er
gar de</w>
fo ot
fi e</w>
fer ais</w>
fer a</w>
feel ings</w>
fam ili
fall u</w>
f ou</w>
f asse</w>
ex cuse</w>
et tre</w>
esp agno
espagno l</w>
es prit</w>
entr er</w>
emp êcher</w>
em prun
em an</w>
dé couver
dou ble</w>
dor t</w>
div or
deven u</w>
des sus</w>
demand er</w>
d eal</w>
cu te</w>
cor ri
conse ils</w>
compl e
comp li
co stume</w>
co pi
chap eau</w>
ch ante</w>
c it
c ation</w>
br ing</w>
bo y
bi ke</w>
bat eau</w>
b our
b ar</w>
auto ri
au tom
au g
at ely</w>
arrê té</w>
arri ère</w>
ar me</w>
appoin ted</w>
améli or
all ée</w>
aim é</w>
ag ent</w>
admi re</w>
ac ro
ac ked</w>
ac h</w>
ab o
T homas</w>
S un
S panish</w>
S m
M o
L inda</w>
Christ mas</w>
étudi er</w>
écou ter</w>
é v
é tions</w>
É tats</w>
y ons</w>
won der
wal ked</w>
w yer</w>
w ear</w>
w ear
wear ing</w>
voy ager</w>
ving t</w>
vie ille</w>
vie il</w>
vi ère</w>
vi de
ve ill
uti le</w>
usu ally</w>
us band</w>
thé ori
théori e</w>
the ory</w>
th anks</w>
tea ch</w>
ta ken</w>
t ex
t est</w>
t al</w>
sur prise</w>
su spec
stu d
stud ying</w>
str ange</w>
st re
st at
st airs</w>
som me
somme il</w>
soci été</w>
so li
so leil</w>
smar t</w>
sin gle</w>
si è
si on
si ght</w>
shor t</w>
shi p</w>
senti ments</w>
see m</w>
scar ed</w>
sav ent</w>
sau f</w>
s we
s port</w>
s end</w>
s cre
s ays</w>
réus si</w>
résou dre</w>
répon dre</w>
réfléch ir</w>
ri vière</w>
respons able</w>
res ul
ren tr
rec ei
re voir</w>
re venir</w>
re fu
rai ent</w>
r ons</w>
r est</w>
r ang</w>
qu ick
quick ly</w>
qu ar
présen ter</w>
pron on
pro ve</w>
pro pr
propr es</w>
pro che</w>
press ed</w>
pou s
pos sibili
po ids</w>
pl ain
pl age</w>
parl ent</w>
orig in
or gan
onn er</w>
on d</w>
ol der</w>
oc cas
obli g
o o</w>
o d
nom b
nomb reux</w>
net to
nat ure</w>
nat ur
n eu
mu l
mont agne</w>
mo itié</w>
mis sion</w>
mi gn
meilleu re</w>
me dic
me an</w>
man teau</w>
mach ine</w>
m our
m es
m as
lun ettes</w>
let ters</w>
la wyer</w>
l y
l ea
l am
k ni
journ al</w>
jo indre</w>
jam bes</w>
invol ved</w>
inté rieur</w>
in for
imme diat
immediat ely</w>
ill er</w>
ig n</w>
id enti
i ze</w>
i vent</w>
i si
i ously</w>
ho od</w>
hi gh
h usband</w>
gr ap
go û
go es</w>
gl ass</w>
gar d
g es</w>
fu ck</w>
for ward</w>
for c
fin ish</w>
figu re</w>
fi x
fam ous</w>
fac t</w>
f at</w>
f all</w>
ex iste</w>
ex ist</w>
et y</w>
esp ér
enseign ant</w>
enn es</w>
enjo y</w>
eff ec
ear th</w>
e ating</w>
e aten</w>
dé tru
dé sor
dé cl
du e</w>
dre am
dorm i</w>
dis cours</w>
direc tion</w>
differ ence</w>
di manche</w>
dev oir</w>
des tin
des er
danger ous</w>
cu p</w>
cr ying</w>
cou v
cou p
conse il</w>
conn ais
com pos
ci ous</w>
chaus sures</w>
chan son</w>
cap it
cad eau</w>
c les</w>
c and
bro ken</w>
br û
bo is</w>
bless é</w>
b ill</w>
b et</w>
b each</w>
av ion</w>
att ends</w>
as si
arrê te</w>
arri ver
ar bre</w>
appe ar
appar eil</w>
anc ed</w>
al ity</w>
ai ses</w>
ai rement</w>
ai r
ai ll
ag re
advis ed</w>
actu ally</w>
ac t
ac i
ab sent</w>
a ff
U nis</w>
U ni
U n
Sm ith</w>
R e
Q u
O K</w>
éch ou
é vit
è le</w>
z oo</w>
windo ws</w>
wi se</w>
wee k
week end</w>
vê t
vêt ements</w>
vé cu</w>
voud riez</w>
vo is
vie w</w>
vi dé
ver n
ver ed</w>
v ase</w>
usu al</w>
us hed</w>
up set</w>
trav el</w>
trans late</w>
tr an
tr affi
traffi c</w>
tour n
ti s
ti ment</w>
ti en</w>
ti di
thé âtre</w>
thir ty</w>
ter ai</w>
ten u</w>
te en</w>
te a</w>
t end
sur ance</w>
su it</w>
st om
st ed</w>
spo ken</w>
spee ch</w>
sol ve</w>
so f
sil en
sho p</w>
sh ar
ser ont</w>
ser iously</w>
ser ious</w>
sem aines</w>
see ing</w>
san g</w>
s por
s ong</w>
s it
ré alis
ri di
ri bu
ren contre</w>
regar dé</w>
ref us
reali ze</w>
re çu</w>
re qu
re pas</w>
re mar
ras es</w>
r è
r i</w>
quo tidi
quit ter</w>
qui et</w>
quel conque</w>
préfér ée</w>
préf ère</w>
proch aine</w>
pro t
pro jet</w>
prin c
pri ce</w>
pr ennent</w>
pos t</w>
port ait</w>
por té</w>
pom me</w>
po n</w>
pleu voir</w>
pleas ed</w>
plan e</w>
pl eut</w>
pl es</w>
pis c
pisc ine</w>
pi zz
ph rases</w>
per su
par o
par les</w>
par c</w>
pap ier</w>
p en</w>
our ces</w>
ou x</w>
or m
on er</w>
occas ion</w>
o we</w>
nor mal</w>
ni e</w>
n s</w>
n one</w>
n ation
mor c
mist akes</w>
mi li
met tez</w>
mar ket</w>
mar i</w>
man u
lumi ère</w>
lo r</w>
li k
lev é</w>
la c</w>
l ly</w>
l ever</w>
k it
kit ch
kitch en</w>
jeu nes</w>
j ar
intéress ant</w>
instru c
institu teur</w>
in ed</w>
in cre
in a</w>
ig ner</w>
ig ne</w>
i des</w>
hy po
hu it</w>
hon te</w>
heu re
har dly</w>
hab it
h eur</w>
h aut</w>
gu ys</w>
gu erre</w>
gi ves</w>
gau che</w>
gar s</w>
g é
g un</w>
g ni
g al</w>
fu lly</w>
fr on
fort une</w>
foot ball</w>
figu red</w>
fer me</w>
fe et</w>
fau l
f is
expli quer</w>
expl ain</w>
expec ted</w>
exer ci
ev i
ear th
désor mais</w>
dé s
dé couv
dri ving</w>
dis appointed</w>
di plom
dans er</w>
danger eux</w>
d om</w>
d ess
d el
d am
cri ti
cour t</w>
coun t</w>
cou s
contin u
consi der</w>
conn u</w>
concen tr
comm en
com man
co in</w>
cl é</w>
ck ets</w>
ciné ma</w>
ci al</w>
chev al</w>
chan ter</w>
ch eck</w>
cert ain
car s</w>
cam era</w>
c ry</w>
bâ timent</w>
br ought</w>
br as</w>
boy friend</w>
begin ning</w>
bal le</w>
b u</w>
ay ez</w>
av er
au riez</w>
att e
ati f</w>
at a</w>
as su
ar m</w>
appel ez</w>
app le</w>
app ed</w>
ap er</w>
and s</w>
an to</w>
all és</w>
al ie</w>
aim ez</w>
ai ment</w>
af in</w>
acro ss</w>
ac tions</w>
ab y
ab ili
a î
U S
Sun day</w>
L on
K ate</w>
J im</w>
F ri
Chin ese</w>
Australi a</w>
Austr alie</w>
A ll
&apos; clock</w>
œu fs</w>
œu f</w>
étr ange</w>
éto iles</w>
ég al</w>
é cu
wor se</w>
win ter</w>
wee ks</w>
we ight</w>
war ned</w>
w ich</w>
w el
visit er</w>
vis age</w>
vi de</w>
vern ment</w>
ve get
v ali
univers ité</w>
under stood</w>
un cle</w>
trav el
trans l
tradu ire</w>
tr on</w>
tou che</w>
to il
tionn é</w>
tion ary</w>
th é</w>
th ous
th em
ter ed</w>
tel evi
televi sion</w>
te eth</w>
t wi
suiv re</w>
succ ess</w>
st ing</w>
spr ing</w>
so oner</w>
sho wer</w>
secre ts</w>
se at</w>
sand wich</w>
s no
s low</w>
s is</w>
s ever
ru m
ret our</w>
re turn</w>
r ue</w>
r is</w>
r appeler</w>
quel les</w>
qu ée</w>
qu it</w>
qu ement</w>
pré sident</w>
prou d</w>
propos al</w>
prin temps</w>
pre par
pr ess</w>
pos s
popul ation</w>
popul ar</w>
po ol</w>
plai sir</w>
pie ce</w>
pic k
pay é</w>
parl ait</w>
p êcher</w>
p ê
p us</w>
p aid</w>
p age</w>
ouver t</w>
oubli e</w>
or ange</w>
or able</w>
op ér
op port
on cle</w>
occup er</w>
o li
o king</w>
nu e</w>
nov el</w>
ner vous</w>
ne ar
n on
n ers</w>
n ement</w>
n am
n age</w>
moy en</w>
mou rir</w>
mor al</w>
mon trer</w>
mo ved</w>
mo ve</w>
mari é</w>
mari age</w>
mar ch
man quer</w>
mam an</w>
mal a
mala die</w>
m el
lu ck</w>
list ening</w>
lik ely</w>
li on</w>
le quel</w>
le ep</w>
lav er</w>
lar mes</w>
l o</w>
l ap
k in
jo lie</w>
jar di
jardi n</w>
j ets</w>
it self</w>
is su
intéress é</w>
in ju
impres si
ill s</w>
il à</w>
il la</w>
i x</w>
i dé
i an</w>
hu man</w>
hor se</w>
hi ver</w>
ham ed</w>
h ea
grou pe</w>
gre at
gr an
go vernment</w>
go tten</w>
go l
gag ner</w>
g res
g ne</w>
g les</w>
g ent
g am
fri end
fort un
for table</w>
for m</w>
for give</w>
fol lowing</w>
fol low</w>
fis hing</w>
fin ally</w>
fin alement</w>
fic ation</w>
fer iez</w>
fen êtres</w>
f ear</w>
f al
expec t</w>
exist ence</w>
ex ig
eu ses</w>
eu m</w>
et er</w>
es ses</w>
erreu rs</w>
er t</w>
er n
entr ée</w>
enn em
end ing</w>
en em
en ed</w>
embrass er</w>
em ment</w>
el ec
eg gs</w>
ef fr
earth qu
dét ermin
découver t</w>
du ring</w>
du re</w>
dres sed</w>
dr a</w>
dou b
do gs</w>
dist ribu
dist ance</w>
dis ent</w>
dis cus
dis co
différen ce</w>
dic tionnaire</w>
dic tionary</w>
di sh
dev o
des c
dem i</w>
d res</w>
d oul
d eli
d ding</w>
cu re</w>
cro y
cro s
cri min
cor respon
copi es</w>
conv ain
con clu
comple te</w>
compag nie</w>
co oking</w>
cli m
choi sir</w>
cho ose</w>
cher cher</w>
ch ino
cert aines</w>
cert aine</w>
cass é</w>
car ry</w>
c t</w>
c ents</w>
c ated</w>
bri ll
br u
bo at</w>
blo od</w>
bl on
bi te</w>
ba g</w>
b onnes</w>
b lu
b le
b it
b att
b ais
bais er</w>
aw ake</w>
avo cat</w>
aug ment
au th
as sist
as leep</w>
as hamed</w>
ar ds</w>
ar ch
apo logi
ap parti
ann ées</w>
anim aux</w>
an nu
am ies</w>
am bi
am a</w>
ali ve</w>
al ong</w>
al lowed</w>
al es</w>
ai mer</w>
ai es</w>
ag ue</w>
ag ed</w>
accep t</w>
acc used</w>
ab road</w>
Un ited</w>
T ur
J u
I s
D é
Americ a</w>
étudi e</w>
ét e
ét at</w>
éren ce</w>
ér ent</w>
épou ser</w>
écr as
é lec
é conom
yo to</w>
y é</w>
x ante</w>
wor th</w>
wor st</w>
wh ite</w>
was hing</w>
wai ted</w>
vrai e</w>
vo ilà</w>
viv ent</w>
viend rai</w>
vidé o</w>
vide o</w>
vend re
vendre di</w>
vac ation</w>
v endre</w>
v el
v eau</w>
us eful</w>
univers ity</w>
twi ce</w>
tu de</w>
tri es</w>
tre es</w>
travaill é</w>
tran qu
tr a
timi de</w>
ti onne</w>
ti n</w>
ti ens</w>
thé mati
thre w</w>
te aux</w>
ta le</w>
t te</w>
t em
t asse</w>
t as
t all</w>
t ait</w>
t ais</w>
t aire</w>
séri eux</w>
sé par
sup er</w>
succe e
succee ded</w>
star ting</w>
st y
sp ace</w>
son ge</w>
som met</w>
solu tion</w>
soi xante</w>
so yons</w>
so in</w>
sm el
sk y</w>
sk i
sin ging</w>
sig ne</w>
si ze</w>
sh e
sh are</w>
sever al</w>
ser as</w>
senti r</w>
sen si
sel ves</w>
se l</w>
se as
scientifi que</w>
satis fied</w>
sal le</w>
s ounds</w>
s cen
s age</w>
rê tez</w>
répar er</w>
ré s</w>
ré s
ru les</w>
ru de</w>
rom an</w>
ro r</w>
ro be</w>
ridi cu
ri t</w>
ri es</w>
ri er</w>
retour ner</w>
respon sible</w>
res té</w>
res cu
rencontr ée</w>
rel a
reco gni
recei ved</w>
re port</w>
re mer
re l</w>
re connaiss
re cherche</w>
rar ement</w>
rap port</w>
rais ons</w>
r on
r hu
r ely</w>
r as</w>
r aining</w>
pun ctu
prê ter</w>
préfér é</w>
pré sent</w>
profes sion
prof on
produ ire</w>
prob able</w>
pri son</w>
prepar ed</w>
prend rai</w>
pos t
pos ition</w>
port able</w>
por tes</w>
pon ctu
pom mes</w>
poli tique</w>
po t</w>
po ir</w>
pl ait</w>
pizz a</w>
pi r
ph ilo
philo so
pers on
per mission</w>
per hap
perhap s</w>
pass ed</w>
parti es</w>
parti cu
par tout</w>
par avant</w>
pain ting</w>
pa tron</w>
p reu
p ping</w>
p it
p in
p ends</w>
p au
pau se</w>
p agne</w>
ouver nement</w>
opport un
on y</w>
off en
o s</w>
no r</w>
n a</w>
morc eau</w>
mi se</w>
mi enne</w>
menti r</w>
medic ine</w>
me ant</w>
mar re</w>
ma thémati
m om</w>
m ille</w>
m age</w>
lé gu
lè ve</w>
lun di</w>
lo ves</w>
lo ts</w>
lo gy</w>
lo g
li èrement</w>
li cen
let tres</w>
les son</w>
le çon</w>
laugh ed</w>
la w</w>
l ors</w>
l end</w>
l ave</w>
l arg
l ar</w>
l ake</w>
k il
j eux</w>
is me</w>
intérê t</w>
infor mati
in t
in sul
imagin ation</w>
im pressed</w>
im p
il ed</w>
hé ro
hypo th
hur ried</w>
hum eur</w>
horri ble</w>
honn ête</w>
hon est</w>
hi ding</w>
hel ped</w>
hel d</w>
hand le</w>
gard en</w>
g érer</w>
g y
g ouvernement</w>
fr ères</w>
for ce</w>
fi x</w>
fi er</w>
fer mer</w>
fai te</w>
fai led</w>
f ly</w>
f illed</w>
f eu
exc uses</w>
exc ep
eu e</w>
et tez</w>
es ts</w>
es poir</w>
er ing</w>
er gy</w>
er ait</w>
ent ends</w>
enc y</w>
embarrass ed</w>
el ess</w>
effr ay
e qu
détru it</w>
déci sion</w>
dé pend</w>
dé li
dr ank</w>
dr a
dou che</w>
donn a</w>
doc teur</w>
dis par
diff érent</w>
dev ient</w>
dev i
det ermin
cus ez</w>
cuis in
cro it</w>
cri me</w>
cr ain
coû te</w>
coun tries</w>
cou pe</w>
correc tement</w>
cor ps</w>
conten te</w>
cont act</w>
consi dér
consi dered</w>
condi tion</w>
comp ter</w>
com port
com mon</w>
com fortable</w>
cl ou
cl ass
cin em
ch ur
ch on</w>
c as</w>
c ancer</w>
buil t</w>
bu l
boute ille</w>
bon heur</w>
bo ttle</w>
bl ame</w>
bizar re</w>
be l</w>
be d
be at</w>
b read</w>
b ly</w>
b is
b ill
b en
b at</w>
av is</w>
au paravant</w>
au l</w>
attrap é</w>
at é</w>
ass is</w>
as i
arriv ée</w>
ar d
ar bres</w>
apparti ent</w>
ans w
anim als</w>
ang es</w>
an ç
an ci
an ak
amou reuse</w>
am p</w>
al tern
aim ait</w>
ai der
ad er</w>
ad ap
ach es</w>
accor ding</w>
ac tion</w>
ac ter</w>
ac ted</w>
a h</w>
S al
P aul</w>
Mon day</w>
K yoto</w>
J e
G re
Fri day</w>
Ex cusez</w>
Ch ar
Can adi
Bo b</w>
B ri
Ar rêtez</w>
Améri que</w>
All em
20 1
19 8
0 00</w>
œu rs</w>
étudi ant</w>
ét age</w>
éni ent</w>
én or
él ev
ég lise</w>
écu reu
écr is</w>
é qu
é lo
è se</w>
â le</w>
z y</w>
x i
wor ried</w>
wh i
we ir
we dding</w>
was te</w>
war m</w>
w sp
wsp aper</w>
w ar</w>
w ake</w>
vou dr
vois ins</w>
vo lution</w>
vo ie</w>
visit ed</w>
vi ve</w>
vi ennent</w>
vers ation</w>
ver ti
us si
us er</w>
us an</w>
urg ence</w>
up stairs</w>
uni que</w>
un less</w>
un fortun
unfortun ately</w>
u pon</w>
trom p
tranqu ille</w>
tr ente</w>
to tal</w>
ti re</w>
ti m
ti e</w>
thir st
thirst y</w>
th ough</w>
ter ie</w>
ter ais</w>
ter a</w>
ten ez</w>
tel ls</w>
tel e
tele phone</w>
t âche</w>
t un
t ory</w>
t ons</w>
t ment</w>
t at</w>
t ask</w>
t aller</w>
séri eusement</w>
sym bo
suspec t</w>
stre et</w>
stop ped</w>
ste m</w>
squ ir
sp é
souff le</w>
sou ci</w>
sort i</w>
sol u</w>
sol di
sol d
sin gs</w>
sil ent</w>
sig n</w>
sh y</w>
sh ut</w>
sh a
sent ez</w>
sem bles</w>
se x
se pt</w>
scen e</w>
sal t</w>
sa che</w>
s our
s oul
s ez</w>
s ell</w>
s co
s che
sche du
s auv
s at</w>
s ant</w>
réve illé</w>
répon du</w>
ré gl
ré es</w>
ré ellement</w>
rè gles</w>
ro b
ri ce</w>
rhu me</w>
remer cier</w>
rem pl
regard ez</w>
reg ard</w>
refu se</w>
re venu</w>
re turned</w>
re qui
re pai
re faire</w>
re ach</w>
rar ely</w>
ra z
ra ce</w>
r ée</w>
r us
r ont</w>
r av
r ab
quit té</w>
puis siez</w>
prépar er</w>
pru den
prom en
pro per
pri ces</w>
pres ident</w>
pr of</w>
pou le</w>
po wer</w>
po l
po ckets</w>
po che</w>
pleu v
plan ète</w>
plan et</w>
pl enty</w>
pic tures</w>
perfec t</w>
per te</w>
par ie</w>
pain ted</w>
p én
p y
p ass</w>
p ale</w>
p air</w>
ouver te</w>
ouv rez</w>
out ons</w>
oun ded</w>
ori ty</w>
or ge</w>
op pos
om age</w>
off er</w>
o pen
nu lle</w>
no tes</w>
no te</w>
neu f</w>
neigh b
nei ther</w>
ne wspaper</w>
natur al</w>
n itu
n ez</w>
n ag
mê mes</w>
mus ée</w>
mus eum</w>
mu r
mon di
mo vies</w>
mo r</w>
mo on</w>
mo der
min im
mes ure</w>
mer veill
me ans</w>
me an
mat ters</w>
man ager</w>
mai l</w>
magaz ines</w>
m itted</w>
m ic
m ement</w>
lu m
lo ss</w>
lo i</w>
lis te</w>
li st</w>
let erre</w>
leav es</w>
le gal</w>
le g</w>
la zy</w>
l our
kni fe</w>
kis sed</w>
k ers</w>
ju g
jou é</w>
inven tion</w>
inter est</w>
inqui ète</w>
inju red</w>
incre as
in vité</w>
in spi
in conv
inconv énient</w>
in clu
impres sion</w>
import antes</w>
impli qué</w>
ill ness</w>
ill ing</w>
il ing</w>
ic ken</w>
i res</w>
i or</w>
i ed</w>
hom e
home work</w>
ho li
hea d
has ard</w>
happen s</w>
happen ing</w>
h â
h ang
h all</w>
guit ar</w>
gu il
great est</w>
grat ul
grand mother</w>
grand father</w>
genti l</w>
gent l
gen i
ge ons</w>
gar der</w>
gar age</w>
gag né</w>
g ér
g row</w>
g ly</w>
g leterre</w>
g agne</w>
fun ny</w>
fu r
fru its</w>
fr omage</w>
four n
fore ign</w>
for me</w>
fonc tionne</w>
fer mé</w>
fas ter</w>
famili ar</w>
f us
f f</w>
f ar
exac t</w>
ex tr
ex pres
ex cel
eu r
esp ace</w>
es cap
es c
er ons</w>
er iez</w>
ennu is</w>
ennem i</w>
enf ance</w>
enem y</w>
end orm
en ter</w>
en gag
en ergy</w>
ei gh
eff et</w>
eb all</w>
earthqu ake</w>
dét ails</w>
découv rir</w>
dé part</w>
dé but</w>
dro ite</w>
drin king</w>
do ivent</w>
dispos ez</w>
dis pu
dis ait</w>
di es</w>
di a</w>
devo irs</w>
dev int</w>
det ails</w>
destin ation</w>
des sert</w>
der s</w>
demand a</w>
deci sion</w>
deci de</w>
de pends</w>
de l</w>
dd le</w>
dd en</w>
d èle</w>
d y
d hood</w>
d ad</w>
cul ture</w>
cu stom
cri se</w>
cr u</w>
cou rir</w>
cou leur</w>
cou cher</w>
corri ger</w>
cor de</w>
cop ine</w>
conf is
con vin
con versation</w>
con stitu
con sac
con gratul
commen ça</w>
comman de</w>
co sts</w>
co lor</w>
cl airement</w>
cinem a</w>
ci ble</w>
ci ation</w>
chur ch</w>
chocol ate</w>
chocol at</w>
chil dhood</w>
chi ens</w>
cham p</w>
ch icken</w>
cen tre</w>
cen sé</w>
car tes</w>
car ds</w>
car act
c y
c lear
c ité</w>
c ache</w>
bro wn</w>
bo ss</w>
bo it</w>
blu e</w>
blan c</w>
bir d</w>
bicy cl
bi o
bed room</w>
bat tre</w>
b un
b s</w>
b right</w>
b orrow</w>
b ack
aw a</w>
avo id</w>
autom ne</w>
au rai</w>
atti tude</w>
ati ves</w>
at ure</w>
at or</w>
at om
as se
as hed</w>
ar m
ar ea</w>
appoin tment</w>
anc é</w>
anc y</w>
amélior er</w>
am ent</w>
all ais</w>
al ent
ai l
agre ed</w>
ag ir</w>
ad mitted</w>
ad mis</w>
ach ed</w>
acc usé</w>
ac tive</w>
absolu ment</w>
ab sur
a b</w>
T u
St ates</w>
S usan</w>
S u
C om
B raz
An gleterre</w>
Améri c
Americ ans</w>
5 0</w>
1 1</w>
û t</w>
û mes</w>
ô tre</w>
ô mes</w>
î mes</w>
ê t</w>
évit er</w>
étrang ers</w>
ét ab
éri e</w>
éner gie</w>
élè ves</w>
élè bre</w>
éli cit
écou te</w>
éch ec</w>
è tes</w>
â ce</w>
youn ger</w>
y e</w>
wri ter</w>
wonder ful</w>
wo re</w>
with in</w>
weir d</w>
wat ched</w>
w it
voul u</w>
vou liez</w>
volon té</w>
vol é</w>
vol un
viv ant</w>
vir us</w>
ver rai</w>
ven ez</w>
ven ait</w>
vel op
ve illé</w>
v ues</w>
v an
v aiss
us ement</w>
uni verse</w>
uni vers</w>
tw enty</w>
tun nel</w>
tru ck</w>
trou bl
tro l</w>
tri ce</w>
tre ated</w>
travel ing</w>
tr op
tr adi
tou cher</w>
tou ched</w>
tor t</w>
tomb ée</w>
to ys</w>
ti ll
the ater</w>
th row</w>
th ers</w>
tel y</w>
tea ching</w>
te ch
tax es</w>
tal ks</w>
tab l
t le</w>
t ap
sym p
sy stem</w>
sup port</w>
sup por
sup pli
sup pl
suppl é
sun der
sub ject</w>
str on
str ai
stat ue</w>
st er
sp agne</w>
souv enir</w>
sou l</w>
sor tes</w>
some body</w>
sof a</w>
so r</w>
so ld</w>
so if</w>
so i</w>
so c
soc cer</w>
smel ls</w>
sleep y</w>
sk ir
sin ger</w>
silen cieux</w>
signi fie</w>
si x
she ep</w>
sh ed</w>
seu ls</w>
servi ces</w>
ser ved</w>
ser ve</w>
sent i</w>
sembl ez</w>
sel y</w>
sel ling</w>
secon de</w>
se par
se ction</w>
se cr
se ar
schedu le</w>
s œurs</w>
s ée</w>
s u</w>
s avons</w>
s ance</w>
s am
s ad</w>
résul tats</w>
résul tat</w>
rés il</w>
réfléch i</w>
réalis er</w>
ré jou
réjou is</w>
ré c
run s</w>
ru le</w>
ri se</w>
ri d</w>
reu r</w>
resul ts</w>
respec ter</w>
rescu ed</w>
res tez</w>
reli gi
regre t</w>
ref used</w>
recogni ze</w>
reas ons</w>
re comm
re ached</w>
rac le</w>
r ôle</w>
r in
r ends</w>
r até</w>
r and
r ains</w>
r ag
qu in
py ram
punctu al</w>
pu zz
pu ll</w>
prê ts</w>
prot ect</w>
promis es</w>
promis ed</w>
prom ettre</w>
prom esse</w>
pro té
pro pri
pro ject</w>
pro gr
prin cip
pr êtes</w>
pos ter</w>
politi ci
poli c
polic eman</w>
pois on</w>
po li</w>
po cket</w>
plea sure</w>
pl ans</w>
pi que</w>
pi erre</w>
ph ones</w>
ph arm
peti tes</w>
pers onn
per mis</w>
pens ent</w>
pe ci
pass ée</w>
pass age</w>
part ager</w>
parl ons</w>
par s</w>
par ole</w>
par ked</w>
par fait</w>
pap a</w>
p âle</w>
p ush</w>
p sy
p in</w>
oun ce</w>
oubli er</w>
ou l</w>
or anges</w>
opin ions</w>
op tions</w>
onn ement</w>
onn a</w>
on ique</w>
ois eaux</w>
ois eau</w>
occu pe</w>
o re</w>
o de</w>
nouv el</w>
nom bre
nombre uses</w>
netto yer</w>
ner veux</w>
neighb ors</w>
n et</w>
n av
n ations</w>
n a
mé tr
mé dic
mont rez</w>
mon ths</w>
mon ter</w>
minim um</w>
mi racle</w>
mi le</w>
mi en</w>
men songe</w>
mem ory</w>
mati ère</w>
mathémati ques</w>
mat h</w>
mat ch</w>
mari és</w>
man qué</w>
mal heure
malheure usement</w>
ma j
m ét
m outons</w>
m eal</w>
m ad</w>
lu t</w>
lon gue</w>
lon ely</w>
lo ws</w>
lin gu
licen se</w>
li ed</w>
li c</w>
li ber
l ay</w>
l au
l and
kin ds</w>
keep s</w>
k id</w>
k a</w>
ju m
jou ets</w>
jo ke</w>
je an</w>
jam be</w>
it er</w>
issu e</w>
ir a</w>
introdu ce</w>
inter rom
inter nation
instruc tions</w>
inst ead</w>
in ée</w>
in v
in sist
in géni
in flu
in f
in dé
in du
in con
in cen
impressi onn
import ante</w>
imagin er</w>
im patience</w>
im age</w>
idé es</w>
ic k</w>
i rez</w>
i ci
i can</w>
hun d
hund red</w>
hum our</w>
hi de</w>
heal thy</w>
head ache</w>
hau sted</w>
happ iness</w>
hang ing</w>
hab its</w>
h i</w>
guit are</w>
gu eu
gu er
gro wing</w>
grand s</w>
gran des</w>
gr é</w>
gr âce</w>
gr ound</w>
gl and</w>
gi ving</w>
gentl eman</w>
gam es</w>
g ri
g ou
g lo
g ho
g as
fu ton</w>
fu me</w>
fro ide</w>
fr équ
fr ais</w>
fou le</w>
fore ver</w>
for êt</w>
for d</w>
for ced</w>
fon d</w>
fo ods</w>
flow er</w>
fir m</w>
fil ms</w>
fi é</w>
fi red</w>
fi ght</w>
feu illes</w>
fau te</w>
fatigu ée</w>
fall ing</w>
fai ts</w>
fai ble</w>
exper t</w>
exerci se</w>
exc ited</w>
ex hausted</w>
ex emp
ex am</w>
ev en
eur re</w>
eu s</w>
eu ro
ess enti
es t
envir on</w>
ense igner</w>
enjo yed</w>
en vers</w>
emprun ter</w>
emp ê
em porter</w>
ei ght</w>
ea se</w>
e ply</w>
e du
dér ange</w>
décl ar
décid a</w>
déci der</w>
dé çu</w>
dé f
dé c
dy nam
du rant</w>
dro p</w>
dro its</w>
dri ver</w>
dre am</w>
dom mage</w>
do ig
do cu
dist in
dish es</w>
direc t</w>
différen ts</w>
difficul tés</w>
di se</w>
di am
devi ennent</w>
dev in
des tro
des k</w>
den ied</w>
de eply</w>
de dans</w>
d ès</w>
d ence</w>
cuis iner</w>
cu e</w>
cru el</w>
cro yez</w>
cro w
cro ient</w>
cri sis</w>
cr av
crav ate</w>
coû t</w>
cous in</w>
cou teau</w>
contr at</w>
constru ction</w>
consi dé
conse illé</w>
connaiss ez</w>
connais sais</w>
condu it</w>
condu is
con science</w>
con sci
compl aining</w>
comm ent
com porte</w>
com mer
co ws</w>
clear ly</w>
cl ever</w>
ci de</w>
chino is</w>
cher ches</w>
che ese</w>
chau ff
chanc eux</w>
chanc euse</w>
ch u
ch ers</w>
ch all
ch al
ch ac
chac un</w>
certain ement</w>
cel e
caus ed</w>
caract ère</w>
car e
capit aine</w>
cap tain</w>
cand y</w>
can ap
canap é</w>
cal me</w>
cal cul
c élèbre</w>
c king</w>
but ter</w>
bur st</w>
bre ath</w>
bo ther</w>
bo red</w>
bo ard</w>
bl ement</w>
bir ds</w>
bicycl ette</w>
bi en
be ef</w>
bas eball</w>
ban an
b eurre</w>
b es
b ear</w>
b ase</w>
b all
b al</w>
ay ant</w>
aver age</w>
au rions</w>
au ra</w>
attend ais</w>
ation al</w>
ati n</w>
at eurs</w>
asse oir</w>
as h</w>
arrê t</w>
arrog ant</w>
arriv ent</w>
arch it
ar ms</w>
ar gu
ar ai
apologi ze</w>
ap pr
any where</w>
answ ered</w>
ang les</w>
ang le</w>
an us</w>
an u
amus ant</w>
am az
al ph
al im
al cool</w>
ain t</w>
aim ée</w>
ag gres
ado les
ad a</w>
aci fi
accep ter</w>
acc ent</w>
abor d</w>
abo ve</w>
a qu
a jou
a .
Y ou
US A</w>
T rang</w>
S pain</w>
S o
S h
S am</w>
R ussi
R es
Qu els</w>
P ro
P er
N ations</w>
N ancy</w>
N a
Mi ke</w>
M at
K en</w>
J aponais</w>
J ack
Is ra
I st
H o
Ger many</w>
En gland</w>
E spagne</w>
E s
Char les</w>
Can ada</w>
C o
Braz il</w>
B résil</w>
An ne</w>
Allem agne</w>
Al ger
A s
A k
A c
201 3</w>
19 7
1 5</w>
î le</w>
ê mement</w>
étu de</w>
éto ile</w>
ét er</w>
ét ang</w>
énor me</w>
éli bat
élibat aire</w>
él u</w>
écureu ils</w>
écri v
écl ata</w>
éch app
é vi
é veillé</w>
é ro
é puis
é go
é car
è vre</w>
è ce</w>
y th
x im
wonder ing</w>
win ning</w>
whi ch
which ever</w>
wel come</w>
wea k</w>
we b
was hed</w>
wal ks</w>
wal king</w>
w n
w le
w ind</w>
w illing</w>
w ears</w>
voudr ait</w>
volun te
vol er</w>
vo leur</w>
vo ix</w>
vo it</w>
vo ice</w>
vir g
vin t</w>
vi sions</w>
vi ons</w>
vi ez</w>
vi enne</w>
ver sion</w>
ver rou
ven iez</w>
veget ables</w>
ve ille</w>
vaiss elle</w>
v é</w>
v us</w>
v endu</w>
v ely</w>
v ar
v al</w>
v aches</w>
té nu
tu r</w>
tu m
tum n</w>
tt les</w>
tt a</w>
trouv ent</w>
tri ste</w>
trem ely</w>
tre fois</w>
traver ser</w>
trai té</w>
trai te</w>
tradu c
toil et</w>
to tal
total ement</w>
to ire</w>
tis h</w>
ti z
ti vement</w>
thous ands</w>
them ati
th ro
th ou
terri bly</w>
termin er</w>
ter me</w>
tend ance</w>
ten té</w>
ten te</w>
tel s</w>
tech no
tal ent</w>
tabl eau</w>
t eurs</w>
t and
tand is</w>
t all
tall est</w>
séri e</w>
symp ath
sy st
syst ème</w>
sur face</w>
supplé ment
sup porter</w>
suiv i</w>
sui cid
suicid é</w>
suff it</w>
succe ed</w>
su spi
su it
su d
sud den
sudden ly</w>
sty lo</w>
strai ght</w>
stop ping</w>
sto ries</w>
sti ck</w>
st or
st er</w>
st ep
st ate</w>
st ar</w>
squir rel
squirrel s</w>
spor ts</w>
sp read</w>
soul ag
souhai te</w>
sou tien</w>
sou ri
sou d
sou ci
sorti e</w>
son gs</w>
som bre</w>
soldi ers</w>
sold ats</w>
sol ved</w>
so ir
soir ée</w>
so ft</w>
sm aller</w>
sli pped</w>
skir t</w>
sk in</w>
six ty</w>
sit ting</w>
sig n
si eur</w>
si enne</w>
si denti
sho pping</w>
sha king</w>
sh el
sh ame</w>
sex u
serv i</w>
ser ver</w>
ser iez</w>
senti ment</w>
sensi tive</w>
se x</w>
scientifi ques</w>
scientifi c</w>
scienti sts</w>
sc ène</w>
sav ed</w>
satis fait</w>
sand wi
sal aire</w>
sal ade</w>
sal ad</w>
sai sir</w>
sa le</w>
s ses</w>
s mile</w>
s low
s even</w>
s et
s en</w>
s cr
s col
s ave</w>
s ain</w>
ré solu</w>
ré gu
ré du
ré di
rum eur</w>
rom ettez</w>
ro se</w>
ro pe</w>
ro om
room s</w>
rist es</w>
ris ques</w>
ris que</w>
ris k</w>
ri z</w>
ri n</w>
ri go
ri e</w>
ri ches</w>
ri c</w>
resul t</w>
rest ée</w>
ress ources</w>
respons abili
respon sibili
res tes</w>
res ted</w>
repai red</w>
rencontr és</w>
rem ède</w>
reconnaiss ante</w>
re ver
re présent
re pe
re mind</w>
re joindre</w>
re gu
re gi
rap ide</w>
racon té</w>
r ound</w>
r oul
r ay
r app
r ain
r age</w>
quin ze</w>
qu eue</w>
qu ences</w>
qu anti
préf ères</w>
pré voyez</w>
pré venu</w>
pré cis
pruden te</w>
prouv er</w>
prou ve</w>
pronon cer</w>
prom is</w>
prom esses</w>
priv é</w>
princ esse</w>
princ ess</w>
pri ses</w>
preu ve</w>
pres sion</w>
pres se</w>
pre gn
possibili té</w>
poss ède</w>
port ée</w>
popul aires</w>
popul aire</w>
pon d</w>
pol lution</w>
po ème</w>
po t
po e
pleas ant</w>
ple ine</w>
play ers</w>
plais ante</w>
pl u</w>
piè ces</w>
pick pockets</w>
pi gg
pigg y</w>
pi geons</w>
pi c</w>
physi cal</w>
peu ple</w>
peti ts</w>
per anto</w>
pens ées</w>
pens ait</w>
pein ture</w>
peci ally</w>
pass ez</w>
pas se
part ment</w>
paro les</w>
par la</w>
pain ful</w>
p ushed</w>
p tion</w>
p ti
p ea
p aying</w>
p ag
p ack</w>
ow es</w>
ouver tes</w>
ouv rit</w>
ouv re</w>
oubli ez</w>
ou rite</w>
ordin aire</w>
or o
or dered</w>
opportun ity</w>
om i</w>
occup és</w>
objec tive</w>
objec tif</w>
o s
o re
o is</w>
o il</w>
nu l</w>
non sense</w>
ni veau</w>
ni que</w>
near ly</w>
n t</w>
n ine</w>
n es
n aiss
métr o</w>
mét é
méri te</w>
mé di
mé d
mul ti
moy ens</w>
moy enne</w>
mor te</w>
mon tr
mon te</w>
mon ie</w>
mo quer</w>
mo od</w>
mo ire</w>
milli ers</w>
mign onne</w>
mic ro
mi sunder
mi ddle</w>
mi d
meu bles</w>
mer de</w>
ment i</w>
men er</w>
me chan
mat ins</w>
mar teau</w>
mar r
mal gré</w>
mai ent</w>
ma themati
m és</w>
m p
m i</w>
m ez</w>
m ed</w>
m ec</w>
m ate</w>
légu mes</w>
lé g
lon gues</w>
lon gs</w>
lo sing</w>
lo ge</w>
lo cked</w>
lo cal</w>
list ened</w>
li ons</w>
li n</w>
li gen
lau gh</w>
l ines</w>
l at
l abor
kno wle
k ind
kind ness</w>
jo li</w>
jet a</w>
je ans</w>
je al
jeal ous</w>
j i</w>
j ette</w>
j al
is tr
is m</w>
is land</w>
is er</w>
invit és</w>
inter dit</w>
intel ligen
int ended</w>
informati ons</w>
indi quer</w>
incen die</w>
in ées</w>
in surance</w>
in se
in de
im prove</w>
im patient</w>
ill ard</w>
il lu
il legal</w>
ign ers</w>
ide as</w>
id ence</w>
ic ation</w>
i zed</w>
héro s</w>
hâ te</w>
hu mili
hu mi
hu ge</w>
hor reur</w>
holi day</w>
ho ping</w>
ho le</w>
ho l</w>
high ly</w>
hel ps</w>
he at</w>
har der</w>
ham mer</w>
habitu é</w>
h ou
h es</w>
h ell</w>
h ang</w>
génér ation</w>
génér alement</w>
guil ty</w>
gueu le</w>
gu ide</w>
gu ests</w>
gu er</w>
gu ard</w>
gre w</w>
grat u
go ods</w>
go ld</w>
gl ace</w>
gi ant</w>
gener ation</w>
gas p
g ée</w>
g ress
g re</w>
g née</w>
g ez</w>
g ed</w>
g ay</w>
g ath
g as</w>
g al
fu tur</w>
fron ti
friend ly</w>
fre e
frapp é</w>
fran ch
fr es
form s</w>
for te</w>
fon d
fol lowed</w>
fo ot</w>
fo ol</w>
fo lle</w>
fo i</w>
fin ite</w>
fin ir</w>
fici al</w>
fic es</w>
fi le</w>
feel s</w>
fav ourite</w>
faul t</w>
fau tes</w>
fall ait</w>
fai r</w>
f us</w>
f ous</w>
f aux</w>
f ant
f ab
extr êmement</w>
exemp le</w>
exam in
ex tremely</w>
ex change</w>
every where</w>
ev ine</w>
ev il</w>
ev idence</w>
et é</w>
essay a</w>
ess ed</w>
espér anto</w>
eso me</w>
escap e</w>
es pecially</w>
er v
er ia</w>
er as</w>
equ al</w>
envoy er</w>
envir on
enti er</w>
enf in</w>
end ur
enc ed</w>
enc e
ence in
en v
en tered</w>
en fu
em er
em b
elec ted</w>
eg g</w>
ec te</w>
ear lier</w>
e ille</w>
e ding</w>
e d
e conom
dé cé
du m
drin ks</w>
dr ag
doul eur</w>
dou te</w>
donn ées</w>
donn ée</w>
doig t</w>
do wn
do s</w>
do ors</w>
divor ce</w>
dis gu
dis appear
différen tes</w>
difficul ty</w>
di ri
di rait</w>
di rai</w>
di ez</w>
dev raient</w>
dev ait</w>
determin ed</w>
deser ve</w>
des cri
der ing</w>
den y</w>
deli cious</w>
de b
d us</w>
d ry</w>
d ea
d ating</w>
d ata</w>
d anced</w>
d an
d ai
d a</w>
cros sed</w>
cri tique</w>
cri t</w>
coû ts</w>
coup able</w>
cou pé</w>
cou per</w>
correspon d
correc te</w>
convin ced</w>
convain c
contr ôle</w>
contr act</w>
continu er</w>
constru it</w>
connaiss ance</w>
connaiss ait</w>
connais se</w>
condi tion
concen trer</w>
con trol</w>
con serv
con gé</w>
con fir
comport ement</w>
comp lic
command é</w>
comm un</w>
com par
coll ine</w>
co t
co pain</w>
co ok
co hol</w>
co chon</w>
clu b</w>
clo sely</w>
cl av
cl air</w>
ci gar
cho sen</w>
cho is
cho ir</w>
chau de</w>
char acter</w>
chang ing</w>
chang es</w>
chall en
chal eur</w>
ch ans
chans ons</w>
ch air</w>
ch a</w>
cer em
cen tu
cele br
caus é</w>
cam pagne</w>
call ing</w>
cal m</w>
c élibataire</w>
c ée</w>
c é</w>
c y</w>
c esse</w>
c ep
c ement</w>
c ally</w>
but ton</w>
bu l</w>
bu g</w>
brû lé</w>
bro thers</w>
br ush</w>
br un
bou ton</w>
bor ro
bor ing</w>
bon jour</w>
bo ttles</w>
bo is
ble u</w>
bl es
bi g
believ ed</w>
beau té</w>
beau ty</w>
be tr
be have</w>
be hav
be coming</w>
be comes</w>
ban des</w>
bag s</w>
bag ages</w>
b œuf</w>
b one</w>
b i</w>
b ank</w>
b ad
b ac
av ions</w>
av aient</w>
augment é</w>
au tumn</w>
au trefois</w>
attrap e</w>
atte int</w>
att endu</w>
ath y</w>
ath le
at temp
assu me</w>
as sure</w>
as surance</w>
ar rested</w>
ar a
appel ée</w>
appel l
ap prends</w>
ap prend</w>
ap pl
ap er
ant ly</w>
an ne</w>
an k
an bul</w>
amus er</w>
ambi tion</w>
am me</w>
am bul
altern ative</w>
alim ents</w>
al lu
al liez</w>
al cohol</w>
ais ons</w>
air port</w>
aimer ait</w>
ag res
af t</w>
adv antage</w>
adv ance</w>
ado p
ad verti
ad or
ad dic
ad di
ad d</w>
actu ellement</w>
accep ted</w>
ac y</w>
ac ide</w>
absolu tely</w>
aband onner</w>
ab ly</w>
a éro
a head</w>
a c</w>
You Tu
Y u
Uni on</w>
So leil</w>
Sal ut</w>
S ach
S M
P romettez</w>
O c
Mar ia</w>
Lon dres</w>
Lon don</w>
L u
K aby
Jack son</w>
Ital y</w>
Ital ie</w>
Ist anbul</w>
In dia</w>
In de</w>
H i</w>
Fr anç
Euro pe
Es peranto</w>
D is
D evine</w>
Con tin
Chin a</w>
Ch ri
Ch ine</w>
C or
C ol
C ar
Bri tish</w>
Amer ican</w>
6 0</w>
2 8</w>
2 0</w>
ô me</w>
étudi é</w>
étudi ante</w>
éti t</w>
ét ant</w>
ét aire</w>
éri r</w>
éri c
ér é</w>
ép in
én om
énom ène</w>
élè ve</w>
égo ï
ég ard</w>
écras é</w>
économ ie</w>
échou é</w>
éch ec
échec s</w>
é rais</w>
é po
épo que</w>
é pic
é du
é an</w>
è tre</w>
è n
â me</w>
â ché</w>
z one</w>
yth ag
y g
y el
xi ème</w>
x ed</w>
won dered</w>
wo od</w>
wi de</w>
wh om</w>
wh is
wh er
wher ever</w>
wh ale</w>
web site</w>
we e</w>
we al
war ds</w>
w ned</w>
w is
w il
w et</w>
w all</w>
véri table</w>
voul aient</w>
vol ant</w>
vo te</w>
vin cible</w>
vi ande</w>
veu illes</w>
ven ge
vali d</w>
v res</w>
v ague</w>
utilis é</w>
utilis ez</w>
uti lise</w>
uti li
us ée</w>
under standing</w>
u rel</w>
u ko</w>
u gly</w>
té mo
tur ns</w>
tu eux</w>
tu e</w>
tu ally</w>
tru c</w>
trouver as</w>
trouv ait</w>
trou bles</w>
tro le</w>
tro isi
troisi ème</w>
trembl ement</w>
tre at</w>
travaill ait</w>
travaill ais</w>
travai lles</w>
transl ations</w>
trai ter</w>
traduc tions</w>
tradu ction</w>
tr apped</w>
tr ains</w>
tour ner</w>
tour ne</w>
tou ristes</w>
tou ri
tou ché</w>
ton gue</w>
tom be</w>
to ward</w>
to oth
to it</w>
timi d</w>
ti ous</w>
ti ght</w>
ti ez</w>
thous and</w>
thou ghts</w>
ther mo
them selves</w>
th r
th ick</w>
th i
thi ef</w>
terri blement</w>
ter y</w>
ter ms</w>
ter m</w>
ter ait</w>
ten t
ten ait</w>
temp ête</w>
tem per
temper ature</w>
te en
tat ou
tas te</w>
t rez</w>
t les</w>
t ful</w>
t ary</w>
t ante</w>
t anni
t an
t ail</w>
sû rs</w>
sû rement</w>
séri euse</w>
sé ché</w>
symbo l</w>
suspi ci
surviv ors</w>
surviv ants</w>
sur vive</w>
suppos és</w>
sun ny</w>
suiv ant</w>
sui cide</w>
sugg ère</w>
sugg est</w>
su me</w>
stu ff</w>
stu dies</w>
stu died</w>
stron ger</w>
str eng
str ang
strang ers</w>
stor m</w>
sto l
stol en</w>
sto ck</w>
st re</w>
st ep</w>
st ea
stea k</w>
st aying</w>
st ances</w>
ss age</w>
spé ci
spo t</w>
spi der</w>
spec tat
spe cial</w>
spe ci
sp ending</w>
sp ell</w>
sp ati
souhai tez</w>
sou rire</w>
sort ons</w>
sor tez</w>
some day</w>
sol aire</w>
soci ety</w>
soci al</w>
sno b</w>
sm ell</w>
slow ly</w>
sk in
skin ny</w>
siè ge</w>
siè cle</w>
situ e</w>
sist ers</w>
sist ance</w>
simpl y</w>
silen ci
si este</w>
shor ter</w>
sho wed</w>
shel f</w>
sh it</w>
ser ré</w>
ser ons</w>
ser ies</w>
sen sé</w>
sen sible</w>
sembl ant</w>
sembl ait</w>
sel fish</w>
secon d
se ize</w>
se em
seem ed</w>
se cours</w>
scre en</w>
sco pe</w>
sci ences</w>
sau ver</w>
sal on</w>
sac ri
sacri fices</w>
sa oul</w>
sa ka</w>
s y</w>
s si
s prin
s our</w>
s ev
s ante</w>
s Ap
sAp p</w>
rê ves</w>
répon ds</w>
rép éti
régl er</w>
ré gi
ré fu
ré con
ré col
ré alité</w>
rus se</w>
ru p
ru mor</w>
ru ined</w>
ru b
ro bo
robo t</w>
ridicu le</w>
ri que</w>
ri ghts</w>
ri el</w>
ri d
rid eau</w>
ri ch
retour n
ret ar
responsibili ty</w>
responsabili té</w>
res ident</w>
requ est</w>
rend rai</w>
rencontr es</w>
rempl i</w>
rem ettre</w>
religi on</w>
rela x</w>
rel ated</w>
regard ant</w>
regar des</w>
ref usé</w>
ref lec
rec ev
reali zed</w>
read s</w>
re pos</w>
re moved</w>
re mise</w>
re jo
re du
rapp elles</w>
rap porte</w>
ram ass
rais ed</w>
racon ter</w>
r ation</w>
r ati
r are</w>
r appelez</w>
r ank</w>
r .</w>
quotidi enne</w>
quit te</w>
ques tionnaire</w>
quar ante</w>
qu érir</w>
qu e
qu asi
quasi ment</w>
qu a</w>
pê che</w>
péri l</w>
pén étr
pé trole</w>
pé enne</w>
puzz le</w>
pun ished</w>
pun i</w>
puis sance</w>
publi que</w>
pu ri
pu re</w>
pu r
psy chi
présen te</w>
préfér erais</w>
préci pit
préci eux</w>
pré vu</w>
pré vois</w>
pré venue</w>
pré occup
pru dents</w>
pru dent</w>
proté ger</w>
proper ly</w>
prom ets</w>
progr amme</w>
profon de</w>
profession nel</w>
profession al</w>
prof it</w>
produ its</w>
pro vi
pro ved</w>
pro per</w>
pro gress
priv ate</w>
pri son
pri me</w>
pres sure</w>
prend ra</w>
pregn ant</w>
pre p
prep are</w>
pre cious</w>
prati quement</w>
prati que</w>
pr être</w>
pouv aient</w>
pous sé</w>
pour vu</w>
pou red</w>
pot ato
potato es</w>
post card</w>
possibili ty</w>
pos tale</w>
pos i
ponctu el</w>
politi cal</w>
poli te</w>
poin ts</w>
poe m</w>
po ète</w>
po et</w>
po ems</w>
plu ies</w>
pleu re</w>
play er</w>
plan ning</w>
plain dre</w>
pic ni
picni c</w>
pic ked</w>
pic k</w>
pi rer</w>
pi er</w>
pi e</w>
physi que</w>
philoso ph
philosoph y</w>
philoso p
philosop hi
philosophi e</w>
ph énomène</w>
ph en
phen om
phenom en
phenomen on</w>
persu ader</w>
persu ade</w>
pers pec
perfec tly</w>
per mit</w>
per mettre</w>
per due</w>
pend ent</w>
pend ante</w>
pen c
pe int</w>
pauv res</w>
passe port</w>
pass word</w>
pass port</w>
particu lièrement</w>
parti t</w>
parti cul
parti ci
part is</w>
par mi</w>
par fai
parfai tement</w>
par donn
pain t</w>
p ne
pne u</w>
p il
p eau</w>
p ants</w>
p al
p acked</w>
p acifi
p a</w>
oun t</w>
ou tr
ou ons</w>
ou illes</w>
ou ette</w>
ot tes</w>
oro logi
origin al</w>
organ ized</w>
or dres</w>
or dre</w>
opér ation</w>
oper ation</w>
open ing</w>
on z
on to</w>
om b</w>
ol d
ok oh
okoh ama</w>
ok o</w>
occu r</w>
oc éan</w>
objec tion</w>
objec t</w>
ob serve</w>
ob jets</w>
o te</w>
o lution</w>
o ls</w>
o grap
o cr
num b
nu ts</w>
nouv eaux</w>
no yé</w>
no ti
no se</w>
no ise</w>
nitu de</w>
ni er</w>
ne ig
nat urel</w>
naiss ance</w>
n ôtre</w>
n ég
n ative</w>
n ation</w>
n ap</w>
n aie</w>
mé moire</w>
mé can
musici en</w>
musici an</w>
musi cal</w>
multi lingu
mu r</w>
mor gue</w>
mon naie</w>
minu it</w>
mign ons</w>
micro scope</w>
meu r
mess ages</w>
merveill eux</w>
me cs</w>
me at</w>
me als</w>
mauv aises</w>
mathemati cs</w>
mat éri
mat ure</w>
marr on</w>
mar k
mang ent</w>
man aged</w>
mai ne</w>
mag nitude</w>
mag ni
ma î
ma ths</w>
ma jo
majo ri
m ouv
m ons</w>
m ess</w>
m ea
m ar</w>
lé ger</w>
lè vres</w>
ly cée</w>
lu re</w>
lou pé</w>
logi e</w>
lo yer</w>
lo y
lo ver</w>
lo ck</w>
ll esse</w>
lis ez</w>
lig nes</w>
liber té</w>
li qui
li ghts</w>
li en</w>
les quelles</w>
larg er</w>
l âche</w>
l ying</w>
l une</w>
l ess
l ent
lent ement</w>
l ead</w>
l as</w>
l an
l aid</w>
l ad
l ab
knowle dge</w>
kni ves</w>
kis sing</w>
kil om
keep ing</w>
k y</w>
k ly</w>
ju pe</w>
ju dge</w>
jou ent</w>
jo ie</w>
jet ez</w>
jet er</w>
jal oux</w>
j ack</w>
is é</w>
is sion</w>
is sait</w>
is es</w>
ir ait</w>
invit ées</w>
invit ée</w>
invit ation</w>
inv ent
intérê ts</w>
introdu ced</w>
inter section</w>
inter net</w>
inten d</w>
intelligen te</w>
intellig ence</w>
ingéni eurs</w>
indu stri
inde pendent</w>
increas ed</w>
in vincible</w>
in et</w>
in e
ine ers</w>
in dic
in croy
in cident</w>
imp act</w>
im pati
im mor
ill ée</w>
ignor ance</w>
igno red</w>
ign it</w>
identi al</w>
ic er</w>
i ère</w>
i ko</w>
i ff
iff el</w>
i ers</w>
hypoth èse</w>
hypoth es
hypothes is</w>
hu man
hu mains</w>
hu maine</w>
hor loge</w>
ho pin</w>
ho o
ho l
ho b
hob by</w>
high er</w>
hi te</w>
hi d</w>
heure uses</w>
heu r
her o</w>
her o
hel lo</w>
hau te</w>
habitu er</w>
habitu des</w>
h ill</w>
h en
h ates</w>
h at
hat sApp</w>
h ad
had n</w>
génér al</w>
géni e</w>
géni al</w>
gu im
gu essed</w>
grou p</w>
gre en</w>
grand i</w>
goû t</w>
gol f</w>
gol d
go tta</w>
go d</w>
gl ed</w>
gi ft</w>
gho sts</w>
genti llesse</w>
gen oux</w>
gath ered</w>
g érie</w>
g â
g orge</w>
g onna</w>
g non</w>
g ency</w>
g by</w>
fu cking</w>
fronti ère</w>
friend ship</w>
franch ement</w>
fran kly</w>
fourn ir</w>
forc é</w>
for gotten</w>
for est</w>
for cer</w>
fo lie</w>
fl ying</w>
fl at</w>
fin ger</w>
fin an
fi ère</w>
fi el
fiel d</w>
fi dèle</w>
fi able</w>
fer ence</w>
fe ed</w>
fav orable</w>
fav or</w>
faul ts</w>
fau dra</w>
fant ômes</w>
fall en</w>
fai th</w>
fai sais</w>
fai lure</w>
fac tory</w>
f ê
f élicit
f lies</w>
f leur</w>
f le</w>
f aus
faus se</w>
expres sions</w>
explo sion</w>
experi enced</w>
exerci ce</w>
excep tion</w>
examin ation</w>
exam ple</w>
ex tra</w>
ex press</w>
ex i
even tually</w>
ev olution</w>
ev ed</w>
ev ant</w>
eu xième</w>
essay ez</w>
esp érais</w>
esp èce</w>
esc ali
es tin
er y</w>
er ror</w>
er ont</w>
er ie</w>
envir onnement</w>
entre tenir</w>
entr é</w>
entr a
entra îner</w>
enti ssage</w>
enti rely</w>
enti re</w>
ent ation</w>
ennu yeux</w>
ennu y
enn ad</w>
eng ineers</w>
endorm i</w>
end ra</w>
end om
en y</w>
en ter
en ess</w>
en courag
empê ché</w>
emplo y
emp ty</w>
em bre</w>
el led</w>
el en</w>
eigh teen</w>
eff ect</w>
ef fort</w>
econom y</w>
e w
e ons</w>
e ine</w>
e book</w>
e ats</w>
e an</w>
dét ec
dési re</w>
dé pê
dé pensé</w>
dé mé
dé mis
dé gr
dé goû
dé courag
du ty</w>
dra w</w>
doul ou
doub ts</w>
doub t</w>
dou é</w>
donn ent</w>
dom aine</w>
docu ments</w>
dispos es</w>
dispar u</w>
disappear ed</w>
dis count</w>
diri ge
direc teur</w>
différen te</w>
différen ces</w>
diffic iles</w>
di ses</w>
di ra</w>
di pl
di al
di agno
di able</w>
deven us</w>
deven ue</w>
dev iner</w>
destro yed</w>
dess inées</w>
deser ves</w>
des tin</w>
des pi
denti ste</w>
denti st</w>
demand ed</w>
de par
de fe
de cl
de bout</w>
daugh ters</w>
dai ly</w>
d euxième</w>
d ear</w>
d al</w>
curi ous</w>
curi os
cur tain</w>
cur ren
cul tures</w>
cul ation</w>
cuisin ière</w>
cu m
cu e
crow d</w>
cros sing</w>
cro is
cro che</w>
crimin al</w>
cre dit</w>
cre ated</w>
cre ate</w>
cre am</w>
cr ush</w>
cr ay
cr ashed</w>
cr ains</w>
coû té</w>
couver ture</w>
cour amment</w>
cou teaux</w>
correc tly</w>
cor ner</w>
cook ies</w>
contribu tor</w>
contribu teur</w>
contr ary</w>
contr ari
contr aire</w>
constitu ent</w>
const amment</w>
connaiss ent</w>
conna î
conn us</w>
conf érence</w>
conclu sions</w>
conclu sion</w>
concer ned</w>
concer ne</w>
concer n</w>
concentr ate</w>
con vient</w>
con som
con fec
complic ated</w>
compl et</w>
compl ain</w>
comp ati
comm itted</w>
comm ission</w>
comm and</w>
com prend</w>
com ic</w>
col li
col le
co ward</w>
co vered</w>
co ver</w>
cle an
cit oy
cir culation</w>
cir const
cigar ettes</w>
cid ent
ci tiz
chois i</w>
chaus s
charg es</w>
charg ed</w>
chant euse</w>
chant eur</w>
cham bres</w>
ch ée</w>
ch âteau</w>
ch ouette</w>
ch ons</w>
ch ess</w>
ch ea
ch ant</w>
ch aise</w>
ch a
cha el</w>
certain ly</w>
cerem ony</w>
centu ry</w>
cel les</w>
cass ée</w>
cass er</w>
cas tle</w>
cas h</w>
care fully</w>
cam ion</w>
c ted</w>
c rai
c ing</w>
c eful</w>
c ath
c arrière</w>
c ab</w>
bur ned</w>
bru it</w>
brill ante</w>
br ain</w>
boute illes</w>
borro wed</w>
bor der</w>
bor del</w>
bor d</w>
boo k
blon des</w>
blon de</w>
bless ée</w>
bless er</w>
bl ings</w>
bl ind</w>
bl ague</w>
bis cu
bill ets</w>
bill et</w>
big ger</w>
bi le</w>
bes ides</w>
ben ef
believ es</w>
beli ef</w>
bel ong</w>
behav ior</w>
beg in</w>
be cue</w>
be ating</w>
be aten</w>
batt le</w>
bar becue</w>
ban que</w>
bal eine</w>
bad ly</w>
b én
b a</w>
aéro port</w>
az ak
ay uko</w>
aw esome</w>
av eu
av ail
avail able</w>
autori té</w>
autori sé</w>
auto ris
auth ority</w>
au té</w>
au teur</w>
au près</w>
au di
attend rai</w>
attend ons</w>
atte indre</w>
att aqu
att acked</w>
atom ic</w>
ati e</w>
at e
as t
as sur
as pir
arti ste</w>
arti st</w>
arrê tée</w>
arrog ance</w>
arriv és</w>
arriv es</w>
arriv ait</w>
arai gnée</w>
ar o</w>
ar a</w>
appréci é</w>
appro ve</w>
appro che</w>
appr entissage</w>
appel ons</w>
appear ance</w>
app étit</w>
app lic
ap porter</w>
ap porte</w>
annu l
ann oun
ann on
ang é</w>
and ra</w>
anak o</w>
anak a</w>
an ta</w>
an cho
ambul ance</w>
am éric
am ount</w>
am ong</w>
am itié</w>
am ical</w>
am en
alph ab
alphab et</w>
all on
all er
alis m</w>
ali en</w>
ali bi</w>
al ty</w>
al o
ais é</w>
ain ts</w>
aim ons</w>
aim ed</w>
aill eurs</w>
ai lles</w>
ai dé</w>
agres si
aggres sive</w>
ag i</w>
ag awa</w>
affai rs</w>
af ford</w>
adv anced</w>
adoles cent</w>
adi es</w>
addic ted</w>
ad ul
ad dressed</w>
ack et</w>
ach ète</w>
ach è
accep té</w>
accep table</w>
ac é</w>
ac ebook</w>
ac compli
ac a
abo ie</w>
abili ty</w>
ab sor
ab lement</w>
a. m</w>
a x
a part</w>
Yu k
YouTu be</w>
Y okohama</w>
W hite</w>
W hatsApp</w>
W ar</w>
US B</w>
Tur key</w>
T r
T ony</w>
T o
T he</w>
T aro</w>
T anaka</w>
SM S</w>
S ou
S e
Russi an</w>
R oy
R I
Per mettez</w>
P ythag
P u
P ré
P resident</w>
P eter</w>
P al
O saka</w>
O ri
Mon sieur</w>
Mi chael</w>
Mar s</w>
M y
M il
M ennad</w>
M ayuko</w>
M al
M ag
L a</w>
K o
K ing</w>
J ouons</w>
J ones</w>
J im
J av
I to</w>
H onn
H it
H i
H ey</w>
H en
H elen</w>
H ar
H anako</w>
H a</w>
Gre en</w>
G o
F acebook</w>
Europe an</w>
E iffel</w>
Dé barr
D av
Christ op
Chri sti
C hopin</w>
C ap
B u
B ar
Ar ab
Ap par
An k
Améric ains</w>
Alger ia</w>
Al gérie</w>
A fri
4 0</w>
20 0
2 00</w>
19 1
1 8
1 50</w>
1 0
, 000</w>
œu vre</w>
ô ne</w>
ï ne</w>
év ér
évér ance</w>
étudi ent</w>
étudi antes</w>
étu des</w>
étrang ères</w>
éte indre</w>
étab li</w>
ét onné</w>
ét end</w>
ét end
ét ag
étag ère</w>
éri eur</w>
ér ature</w>
épuis é</w>
épou x</w>
épou sé</w>
ép ê
ép ais</w>
éni g
énig me</w>
élo igne</w>
élev és</w>
élev é</w>
élec tri
élec tr
électr onique</w>
égoï ste</w>
ég alité</w>
ég age</w>
écriv ain</w>
écou té</w>
écou tez</w>
écou tes</w>
é volution</w>
é prouve</w>
é ment</w>
é chan
échan till
è tres</w>
ç o
â gé</w>
z éro</w>
z ing</w>
z er
zer o</w>
your selves</w>
y side</w>
y m
y ens</w>
y en</w>
y board</w>
x ious</w>
wor thy</w>
wor n</w>
wor kers</w>
wis dom</w>
win gs</w>
win ds</w>
whe el</w>
weal thy</w>
wea pon</w>
we i
wei gh
we b</w>
was ting</w>
war n</w>
war ming</w>
w re
w ound</w>
w arri
warri or</w>
vé cut</w>
voy ag
vou lut</w>
volunte ered</w>
volon taire</w>
volon t
vo lu
vo l</w>
viv ons</w>
viv ez</w>
viv ait</w>
vit esse</w>
vit al</w>
vis a</w>
virg in</w>
viol on</w>
viol ent</w>
viend rais</w>
vie illard</w>
vic tory</w>
vic toire</w>
vic ti
vi sible</w>
vi si
vi ously</w>
vi oli
violi n</w>
vi o
vi er
vier ge</w>
veu ille</w>
vers é</w>
vers ity</w>
ver ty</w>
ver res</w>
venge ance</w>
vend ent</w>
ven ues</w>
ven ts</w>
ven ted</w>
ven ons</w>
ven ge</w>
velop pé</w>
var ious</w>
val eur</w>
v ée</w>
v ity</w>
v ez</w>
v este</w>
v as
v alis
v able</w>
uti les</w>
us ine</w>
urg ent</w>
ur in
ur day</w>
uni forms</w>
un pleasant</w>
un likely</w>
un known</w>
un es</w>
un dance</w>
un ciation</w>
ul er</w>
u res</w>
u le</w>
témo in</w>
télé phones</w>
tw el
tu y
tu t</w>
tu euse</w>
tu es</w>
tru sted</w>
trouver ez</w>
trouv es</w>
trom per</w>
tri bun
tribun al</w>
traver sé</w>
travaill ons</w>
travaill erai</w>
trans por
tra hi</w>
tr é
tr yside</w>
tr unk</w>
tr ou</w>
tr ons</w>
tr ess</w>
tr ait</w>
tr ais</w>
tr ace</w>
tr ac
touri sts</w>
tor ture</w>
tooth ache</w>
tomb ent</w>
tomb a</w>
tom ac</w>
to x
to s
to bre</w>
to ber</w>
tionn er</w>
tionn ellement</w>
tin y</w>
ti ves</w>
ti tre</w>
ti ger</w>
ti fs</w>
ti er</w>
ti endra</w>
ti ckets</w>
thre at
threat ened</w>
thir d</w>
ther n</w>
th under</w>
th ful</w>
th eless</w>
tex te</w>
tex t
terri fied</w>
ter ro
ter rain</w>
ter mine</w>
ten ue</w>
ten tez</w>
ten tation</w>
ten d</w>
temp érature</w>
tea chers</w>
tat too</w>
tas tes</w>
tar te</w>
tar get</w>
tap is</w>
tal on</w>
tab li
tabli shed</w>
t ère</w>
t tes</w>
t s
t onne</w>
t led</w>
t i</w>
t ext</w>
t es
t ends</w>
t ear</w>
t ches</w>
t aux</w>
t au
tau ght</w>
t ations</w>
t as</w>
t ants</w>
t ains</w>
t age</w>
t ables</w>
sû res</w>
sé quences</w>
sé jour
sé isme</w>
symbo le</w>
swe et</w>
swe at
sw ear</w>
suspec te</w>
surpri sing</w>
sur venu</w>
sur veill
suppos é</w>
suppor tive</w>
suppor ted</w>
supplément aire</w>
super market</w>
super marché</w>
sup porte</w>
sugg es
sub way</w>
su y
su ffici
su dden</w>
su d</w>
sty le</w>
stupi des</w>
stu r
stri ct</w>
stri c
streng th</w>
stre ets</w>
str anger</w>
stom ach</w>
sto ok</w>
sto ire</w>
step ped</w>
stat us</w>
st un
st one</w>
st in
st ati
st am
ss ez</w>
squ are</w>
spi te</w>
spea ker</w>
spati al</w>
sp ic
sp ends</w>
sp are</w>
souhai ter</w>
soud ain
soudain ement</w>
souci e</w>
sou tenu</w>
sou p
sou cier</w>
sort is</w>
some how</w>
soli d</w>
soi rées</w>
smar ter</w>
sm iling</w>
sm iled</w>
sm ashed</w>
sli p</w>
sli d</w>
ski pped</w>
ski ing</w>
sk i</w>
siè cles</w>
sin gu
silenci euse</w>
sil ly</w>
signi fication</w>
signi fic
sidenti elle</w>
si us</w>
si e</w>
si blings</w>
sho ck</w>
sh oul
sh ou
sh ine</w>
sh in
sh ap
sev enty</w>
set tled</w>
servi ettes</w>
serv ant</w>
ser s</w>
senti t</w>
sent ait</w>
sembl ent</w>
sem ents</w>
secr ète</w>
sear ch</w>
se curi
securi ty</w>
se c</w>
sco w</w>
scienti st</w>
scho lar</w>
scar y</w>
sc ou</w>
sc is
scis sors</w>
sc and
sav ing</w>
sau té</w>
sau ter</w>
satis faite</w>
sam e
same di</w>
sal ary</w>
saf ety</w>
saf ely</w>
sac ré</w>
s è
s pon
s n
s me</w>
s lav
s l
s ents</w>
s ence</w>
s cul
s cri
s care</w>
s car</w>
s ation</w>
s an</w>
s ake</w>
s ag
sag esse</w>
s aches</w>
s able</w>
rê ve</w>
réve iller</w>
réve ille</w>
réus si
répéti tion</w>
répar é</w>
rép are</w>
régu lièrement</w>
réfléch is
récol te</w>
réc emment</w>
ré vél
ré sistance</w>
ré side</w>
ré pu
ré monie</w>
ré fri
réfri gér
réfrigér ateur</w>
ré el</w>
ré com
ré cl
récl am
ré able</w>
rè gle</w>
rub b
rubb ish</w>
ru gby</w>
ru es</w>
roul er</w>
ro y
ro pes</w>
ro of</w>
ro le</w>
ro i</w>
ro cks</w>
ris ks</w>
rigo ler</w>
ridicu lis
ri o
ri l</w>
retour ne</w>
ress enti
respon d</w>
respec tful</w>
res ources</w>
res our
res ist</w>
res ist
resist ance</w>
res ign</w>
requi res</w>
requ ins</w>
repe at</w>
rentr ée</w>
rentr é</w>
rencontr ons</w>
ren voy
ren tre</w>
ren om
ren dit</w>
ren de</w>
rempl is</w>
rem plac
rem ettez</w>
rem bour
rem ained</w>
rem ain</w>
reli eved</w>
rela xed</w>
rel ation
regu lar
regular ly</w>
regre tte</w>
regre tt
regard ait</w>
regard ais</w>
regard a</w>
reg istr
ref our</w>
redu ced</w>
recomm end</w>
reco very</w>
rec ently</w>
rec ast</w>
re war
re viendra</w>
re venus</w>
re té</w>
re trouvé</w>
re traite</w>
re ques
re pro
re pris</w>
re prendre</w>
re passer</w>
re pair</w>
re monter</w>
re jec
re command
re cherch
re cette</w>
re ality</w>
rav i</w>
ramass é</w>
rais ins</w>
racon ta</w>
rab b
rabb its</w>
ra w</w>
r ying</w>
r ty</w>
r ly</w>
r erais</w>
r ass
r ange</w>
r al</w>
r al
r ained</w>
quotidi en</w>
quanti té</w>
qu ie</w>
qu arti
quarti er</w>
qu ali
q u</w>
péri ode</w>
pénétr er</w>
publi é</w>
publi cité</w>
pu ts</w>
pu tain</w>
pu r</w>
pu ll
psychi c</w>
présent é</w>
pré visions</w>
pré server</w>
pré hen
propri été</w>
propos es</w>
propos ed</w>
proper ty</w>
pronon ciation</w>
pron unciation</w>
pron ounce</w>
promen er</w>
promen ade</w>
prom o
profon dé
profondé ment</w>
profes sor</w>
produc ts</w>
produc tive</w>
produc t</w>
probab ili
pro ving</w>
pro jets</w>
pro cé
prin ci
pri é</w>
pri ved</w>
pri ori
pri mé</w>
pri l</w>
pri est</w>
preu ves</w>
pret ended</w>
press ée</w>
press é</w>
pres er
prend rais</w>
pren ons</w>
pren ant</w>
premi ers</w>
pre vented</w>
prati quer</w>
practi cing</w>
practi ce</w>
practi cal</w>
pr ennes</w>
pr enne</w>
pr ais
prais ed</w>
pous ser</w>
pou sse</w>
pou p
pou n
pou let</w>
post po
postpo ne</w>
poss è
pos é</w>
port ez</w>
por ts</w>
por terai</w>
pon du</w>
politici an</w>
poli cier</w>
po w
po verty</w>
po ni
po il</w>
po ig
poig née</w>
po i
po ches</w>
plom b
pleuv ait</w>
pleu ve</w>
pleu rait</w>
plea sures</w>
plan ation</w>
plais an
plain tes</w>
pl on
pl at
pl ash</w>
pl ant</w>
pl aire</w>
pl ain</w>
pl af
plaf ond</w>
pi ég
pi ti
pi sto
pi ec
pharm ac
peti tion</w>
perspec tive</w>
person nel</w>
pers évérance</w>
pers ever
persever ance</w>
per met
per man
per d</w>
per cent</w>
penc il</w>
pea ce</w>
pe indre</w>
pe anu
peanu ts</w>
pauv reté</w>
pati ents</w>
pass a</w>
particul ar</w>
particu lier</w>
parti ra</w>
par ten
par te</w>
par liez</w>
par ess
par eille</w>
par eil</w>
par donner</w>
par don</w>
pap iers</w>
pan talon</w>
pai x</w>
p èse</w>
p tions</w>
p ity</w>
p ills</w>
p ath</w>
p aire</w>
oy ons</w>
ouv ris</w>
oun ding</w>
orologi ques</w>
orig ine</w>
ori es</w>
or tu
or er</w>
opér a</w>
oppos é</w>
opportun ité</w>
oper ate</w>
oper a</w>
op érer</w>
op ed</w>
on é
on line</w>
on gs</w>
on dance</w>
on aire</w>
ol ym
off icer</w>
off ert</w>
od d</w>
od b
odb ye</w>
ocr acy</w>
occu r
oc tobre</w>
oc ean</w>
oblig ée</w>
oblig ations</w>
ob é
ob viously</w>
ob tenir</w>
ob s
ob jet</w>
ob iles</w>
o w</w>
o ke</w>
o gle</w>
o bile</w>
o be
obe y</w>
né go
numb ers</w>
num éri
nu ages</w>
noti ced</w>
nom bres</w>
no tion</w>
no tice</w>
no le</w>
no ix</w>
no irs</w>
no ire</w>
nitu re</w>
ni a</w>
nes day</w>
ner veu
ner ve</w>
necess ar
necessar ily</w>
near est</w>
ne go
nego ti
ne g
na ï
n és</w>
n ant</w>
n ai
nai ve</w>
mê ler</w>
mété orologiques</w>
médic ament</w>
méd aille</w>
mé th
my ster
my st
my ri
mur mu
mur der</w>
mu m</w>
mouv ement</w>
mour ut</w>
mou th</w>
mou choir</w>
mor d</w>
montr ent</w>
mondi ale</w>
mondi al</w>
moder n</w>
mo ving</w>
mo teur</w>
mo s
mo dèle</w>
mo del</w>
mo de</w>
mo cr
misunder standing</w>
mist a
mista ken</w>
mis éri
mis es</w>
milli on</w>
mil es</w>
mid night</w>
mi te</w>
mi stook</w>
mi rent</w>
mi lieu</w>
mi f
mif ère</w>
mi el</w>
mi e</w>
meur tre</w>
mer cy</w>
mer cre
mercre di</w>
ment al</w>
mem bre</w>
mel ted</w>
meill eurs</w>
mean ing</w>
me th
me di
me dal</w>
maî tri
mat inée</w>
mat es</w>
mat er
mater i
mas ter</w>
mark eting</w>
mari ée</w>
manu el</w>
manu al</w>
manqu ez</w>
manqu ent</w>
manqu ait</w>
mani pul
mani f
mang ez</w>
mang es</w>
mang eons</w>
man ques</w>
mam mifère</w>
mam mal</w>
mal adies</w>
majori ty</w>
maj or</w>
magni fi
ma ître</w>
ma p</w>
m ène</w>
m pic</w>
m p</w>
m ember</w>
m ation</w>
m ans</w>
m and
m aisons</w>
m aire</w>
ly mpic</w>
lum bus</w>
lu gg
lugg age</w>
lou er</w>
lou d</w>
logi que</w>
log ist</w>
log ical</w>
lo ving</w>
lo vely</w>
lo ses</w>
lo cation</w>
lo an</w>
lo ad
ll o</w>
liv er</w>
lis s</w>
liqui de</w>
lin k</w>
lig ne</w>
lic t</w>
li tres</w>
li ters</w>
li p
li mite</w>
li king</w>
li gh
li fe
life time</w>
li ar</w>
lev el</w>
let ting</w>
lea der</w>
le y</w>
lap top</w>
lap ins</w>
lang age</w>
lais ses</w>
lais sa</w>
lad y</w>
labor ato
laborato ire</w>
l ente</w>
l en
l em
l atin</w>
l ately</w>
l as
l ancé</w>
l ancer</w>
l ack</w>
kno ck</w>
ke yboard</w>
k ne
k le</w>
k ilo
kilo s</w>
k id
k aby
jum ped</w>
ju ry</w>
ju re</w>
ju ge</w>
ju d
jou eurs</w>
jou eur</w>
jo kes</w>
jo gg
jogg ing</w>
jet ée</w>
j el
j au
j apon
j ail</w>
j acket</w>
it ées</w>
it ting</w>
ir ur
ir oned</w>
ir on</w>
inven ter</w>
inven ted</w>
intéress és</w>
intéress ez</w>
intéress ante</w>
inté resse</w>
internation ale</w>
internation al</w>
interes ts</w>
inter rup
inter ro
intellig ents</w>
inspi ration</w>
indé pendante</w>
indi que</w>
in timi
in time</w>
in san
in g
in fec
in corri
incorri gi
in come</w>
in calcul
incalcul able</w>
impressionn ée</w>
impressi onné</w>
immé di
imagin é</w>
im pul
im bé
ill égal</w>
il li
ignor ais</w>
idi ote</w>
ic ace</w>
i vre</w>
i ve</w>
i rais</w>
i est</w>
héro ïne</w>
hé site</w>
hun g</w>
hu ètes</w>
hu mor</w>
hou ses</w>
hor aire</w>
honn eur</w>
hon ey</w>
hol ding</w>
histo ires</w>
heur té</w>
hero in</w>
her e
her be</w>
heav ily</w>
hear ing</w>
har v
har i
har d
hand some</w>
hand ed</w>
hai r
habitu ellement</w>
habit ants</w>
habit ait</w>
hab it</w>
h éri
h a</w>
géni es</w>
gé ante</w>
guer rier</w>
gu éri
gu ère</w>
gro w
gro ssi
grand ma</w>
gr ass</w>
gr adu
go odbye</w>
glo bal</w>
glis sa</w>
gi g
gi es</w>
gh ting</w>
gg le</w>
gg ed</w>
genti lles</w>
genti lle</w>
geni uses</w>
geni us</w>
gener ally</w>
gar lic</w>
gar er</w>
gar dé</w>
gar des</w>
gar der
garder ai</w>
gal ax
g ê
g rés</w>
g el
félicit er</w>
fur ther</w>
fur niture</w>
fun ds</w>
fu sion</w>
fu mée</w>
fu el</w>
fres h</w>
free dom</w>
fre a
frea k</w>
frapp e</w>
frapp a</w>
franç aise</w>
fourn it</w>
four ch
fore igners</w>
fore head</w>
forc ée</w>
for mul
for mes</w>
for mer</w>
for ces</w>
for bi
forbi dden</w>
fonc tionné</w>
fonc tionn
fon du</w>
fo recast</w>
fo c
flu ent</w>
fl av
fl as
fl ag
fix e</w>
fin al</w>
fi ghting</w>
fi f
fi chi
fi che</w>
fer ons</w>
fer més</w>
fer mée</w>
fer ions</w>
fer ez</w>
fer ait</w>
fau ts</w>
fas hi
fal se</w>
fal lut</w>
fai thful</w>
fai rly</w>
fac ture</w>
fac es</w>
fab ri
f ûmes</w>
f âché</w>
f oun
f is</w>
f fr
f esti
f asses</w>
f ake</w>
expli cation</w>
expl ained</w>
exig é</w>
excel lent</w>
exc ès</w>
exc user</w>
exam ens</w>
exac te</w>
ex ténu
ex pri
ex planation</w>
ex pi
ex p
ex ion</w>
ex em
ex e</w>
ex cl
every day</w>
ev ents</w>
ev e</w>
euro péenne</w>
et eria</w>
essenti al</w>
ess ez</w>
ess ence</w>
ess ai
es tomac</w>
es tablished</w>
es que</w>
es cal
er o
er chez</w>
environ ment</w>
env a
entr aî
entr ance</w>
entr al</w>
entr a</w>
enti ère</w>
entend us</w>
entend ez</w>
ent é</w>
enseign é</w>
ense igne</w>
ennu yer</w>
enjo ys</w>
engag ement</w>
endorm ir</w>
endom mag
end ure</w>
end or
end er</w>
end ant</w>
encein te</w>
en voie</w>
en visage</w>
en vis
en verrai</w>
en ted</w>
en registr
en lève</w>
emprun te</w>
emplo yer</w>
emplo yed</w>
emer gency</w>
em mène</w>
elec tri
el sius</w>
el ler</w>
el ect</w>
eigh ty</w>
effray é</w>
effec tuer</w>
effec tive</w>
eff icace</w>
ed nesday</w>
ec tion</w>
eas ier</w>
ea bles</w>
e ût</w>
e k</w>
e illes</w>
e iling</w>
e h</w>
détermin ation</w>
dét endre</w>
dét en
dépê ché</w>
démis si
déli cieux</w>
déjeu né</w>
déf i</w>
décé dé</w>
découver te</w>
déclar é</w>
décl en
dé ç
dé so
dé s</w>
dé pêcher</w>
dé pourvu</w>
dé pou
dé penser</w>
dé passer</w>
dé nu
dé mocr
dé lic
dé g
dé fil
dé fauts</w>
dé es</w>
dé du
dé cor
dé con
décon ne</w>
dé ch
dé barrass
du cted</w>
du ck</w>
dro wned</w>
dro ve</w>
dro pped</w>
dri ed</w>
dream s</w>
dr ôle</w>
down town</w>
doulou reux</w>
dou tes</w>
dor ment</w>
do w</w>
do se</w>
divor ced</w>
distin guer</w>
dist ant</w>
dispos ent</w>
dispos ais</w>
disgu sting</w>
discus sed</w>
discus s</w>
discu té</w>
disco vered</w>
dis puter</w>
dis poni
direc tor</w>
din gue</w>
difficul té</w>
diff ère</w>
dic tions</w>
dic tion</w>
dic t</w>
di ty</w>
di stur
di so
di rty</w>
di rent</w>
di gne</w>
di g
di eu</w>
dev ais</w>
determin ation</w>
det ec
despi se</w>
desc end
des ire</w>
derni ères</w>
depar ture</w>
den se</w>
dec ei
de prived</w>
de finite</w>
de f
de ep</w>
de ed</w>
de cor
dam aged</w>
d ors</w>
d ez</w>
cé rémonie</w>
curi eux</w>
cuisin ier</w>
cu red</w>
cu l</w>
cré é</w>
cré dit</w>
cré di
criti ques</w>
cray on</w>
crain dre</w>
crai gn
cr ème</w>
cr o</w>
coû tera</w>
couver t</w>
courag eux</w>
cour ut</w>
cour us</w>
cour te</w>
cour ses</w>
coup a</w>
coun tryside</w>
coun ter</w>
coul eurs</w>
cou ps</w>
cou le</w>
cou ché</w>
cor pus</w>
cor des</w>
convainc re</w>
convain cu</w>
contribu te</w>
contribu er</w>
contrari é</w>
continu é</w>
contin ue</w>
cont ain</w>
cont acter</w>
conse ille</w>
conse illa</w>
consci ent</w>
conn ait</w>
congratul ations</w>
congratul ate</w>
confi dence</w>
condu ct</w>
condi tionné</w>
con ven
con tient</w>
con séquences</w>
con su
con spi
con qu
con nue</w>
con cl
concl u</w>
compos ed</w>
compli quée</w>
compli qué</w>
comple x</w>
compl aints</w>
compag ner</w>
comp ét
comp at
compat is</w>
comp an
commun ication</w>
commer ce</w>
comment aires</w>
comment aire</w>
commen ç
com promise</w>
com prennent</w>
com bus
collec ted</w>
colle ge</w>
coll abor
col or
coff re</w>
co ts</w>
co ins</w>
co ck
clu t
clou ds</w>
clim b</w>
cli mati
cli ent</w>
clean ed</w>
clav ier</w>
class room</w>
cl é
cl assi
cl asses</w>
cl ari
citoy ens</w>
citiz ens</w>
cis m</w>
cis eaux</w>
circonst ances</w>
cir cum
ci vi
ci v
ci eusement</w>
cho o
cho c</w>
chino ise</w>
cherch ait</w>
che er</w>
che ating</w>
chauss ettes</w>
char me</w>
chant ent</w>
chang era</w>
chang ements</w>
cham pagne</w>
challen ge</w>
ch œur</w>
ch ère</w>
ch ré
ch irur
ch at
ch aises</w>
ch airs</w>
cer veau</w>
cen ter</w>
celebr ate</w>
cau ses</w>
car refour</w>
cap ac
can cel
cam p</w>
cam ara
camara des</w>
call s</w>
cal es</w>
caf eteria</w>
cach é</w>
cach er</w>
c ou</w>
c on</w>
c is</w>
c eiling</w>
c ate</w>
c anc
c aca
caca huètes</w>
bén é
bus te</w>
bus h</w>
brû le</w>
bro sse</w>
bri tanni
bri sé</w>
bri o
bri lle</w>
br onz
br an
br ac
bour g</w>
bou tique</w>
bou che</w>
bois son</w>
bo w
bo ivent</w>
bo ite</w>
blo g</w>
bles sure</w>
blan ket</w>
bl ing</w>
bl in
bl ag
bizar rement</w>
bit ter</w>
bit ing</w>
biscu its</w>
bien venue</w>
betr ayed</w>
bel ongs</w>
beg ins</w>
be es</w>
be ar
bat aille</w>
bas ed</w>
bar s</w>
bar king</w>
bar ely</w>
ban c</w>
ball s</w>
bag nole</w>
bac ks</w>
b û
b ound</w>
b om
b lowing</w>
b low</w>
b liss</w>
b ing</w>
b asse</w>
b are</w>
b ande</w>
b an</w>
b ai
aveu gle</w>
av ril</w>
av ou
av iez</w>
av ed</w>
av ancé</w>
autom obile</w>
au tru
au rez</w>
au quel</w>
au nt</w>
attrap er</w>
attr acted</w>
atti rer</w>
attend ez</w>
atten tivement</w>
attaqu és</w>
att ack</w>
atom ique</w>
ati c</w>
athle te</w>
at urday</w>
assur er</w>
assist ant</w>
assist ance</w>
assi se</w>
as ts</w>
as sum
as pi
as pec
as ks</w>
as king</w>
as ide</w>
arti ficial</w>
arti cles</w>
arrog ants</w>
arro se</w>
arriver ait</w>
arriv al</w>
arri va</w>
argu ing</w>
archit ecte</w>
archit ect</w>
ar mée</w>
ar ab
appréci er</w>
appréci ent</w>
appl ying</w>
appar u</w>
appar tement</w>
appar ence</w>
app ear</w>
apologi zed</w>
apo logy</w>
ap ples</w>
ap petite</w>
any way</w>
annul ée</w>
an xious</w>
an xi
an i
amélior é</w>
amus é</w>
amus ante</w>
amaz ing</w>
am ed</w>
am bo
am b
altern atives</w>
allu mer</w>
all ées</w>
alis me</w>
alis ation</w>
ali ens</w>
alent ours</w>
al y
al lions</w>
al ed</w>
aiss ez</w>
aiss er</w>
aiss ent</w>
aimer ions</w>
aider ai</w>
aider a</w>
ai mais</w>
ai maient</w>
ai dée</w>
ai des</w>
ag réable</w>
ag on
ag issait</w>
ag i
af fir
ador ent</w>
addi tion</w>
adap ter</w>
adap t</w>
ad ress
ad orable</w>
ad mit</w>
ad min
ad ded</w>
actu elle</w>
acti vité</w>
acti vity</w>
achè terais</w>
achet a</w>
ach ing</w>
ac trice</w>
ac tress</w>
ac qui
ac id</w>
ac er</w>
ac cro</w>
absur de</w>
aband onne</w>
aband onn
aband oned</w>
ab use</w>
ab undance</w>
ab str
ab ondance</w>
ab eilles</w>
ab ducted</w>
a ï
a x</w>
a to</w>
a partment</w>
W i
W ednesday</w>
W ar
V oyons</w>
V er
Uni es</w>
U r
Tur quie</w>
To wer</w>
T i
T his</w>
T h
S un</w>
S on
S aturday</w>
S W
Roy al</w>
Re petition</w>
R o
Qu e
Pré sident</w>
Par donnez</w>
P ortu
P at
Oc tober</w>
O u
O lympic</w>
N or
Mo scow</w>
Mo scou</w>
M r.</w>
M is
M ac
L avez</w>
L atin</w>
Ko be</w>
Je anne</w>
Je an</w>
J o
Ital ian</w>
Isra ël</w>
Isra el</w>
Intern ational</w>
In vite</w>
Hi stoire</w>
H é</w>
H um
Go ogle</w>
G u
G rand
Franç ais</w>
F a
E gy
Débarr asse</w>
Di able</w>
D épê
D égage</w>
D u
D em
Cor ri
Contin ue</w>
Col omb</w>
Co lumbus</w>
Ch il
Ch erchez</w>
C re
C essez</w>
C entral</w>
C elsius</w>
C e</w>
C ath
B ou
B ill</w>
B i
B el
B ats</w>
B C</w>
Australi an</w>
Ap portez</w>
A u
A pril</w>
A m
4 000</w>
3 00</w>
2 5</w>
2 .
1 00</w>
û te</w>
ô ts</w>
ô tres</w>
ô ti</w>
ô ta</w>
ï e</w>
ï de</w>
î n
în mes</w>
í o</w>
ê ti
ê tement</w>
ê t
êt eté</w>
ê pes</w>
ê le</w>
évi dence</w>
év èn
évèn ements</w>
év an
évan ou
étudi ais</w>
étudi a</w>
étrang ère</w>
éte ignit</w>
étab lie</w>
ét éri
étéri a</w>
ét y
ét rin</w>
ét ou
étou ff
ét off
étoff e</w>
ét ern
ét ari
ét an
ér ée</w>
ér u
éru dit</w>
ér i</w>
ér ant</w>
équi libre</w>
épou se</w>
épin gle</w>
épic é</w>
épic erie</w>
ép reu
épreu ve</w>
ép el
ép au
énor mé
énormé ment</w>
éner vé</w>
én avant</w>
élicit ations</w>
éli cop
élicop tère</w>
éli cité</w>
électri cité</w>
ég étari
ég aux</w>
ég ales</w>
ég ale</w>
édu cation</w>
écureu il</w>
écu ter</w>
écri ts</w>
écri te</w>
écri rai</w>
écras er</w>
écr an</w>
écou tais</w>
économ ise</w>
échou a</w>
échapp é</w>
échantill on</w>
é sus</w>
é rem
érem ment</w>
é par
é mo
é lé
élé ph
é lu
é lire</w>
é di
é char
échar pe</w>
é change</w>
é a</w>
èn ent</w>
è vement</w>
è rerais</w>
ç ut</w>
É gy
Égy p
Égyp te</w>
É co
Éco s
Écos sais</w>
z ones</w>
z on</w>
z om
z i
z en</w>
z art</w>
z aine</w>
z a</w>
yo g
yog a</w>
yg ones</w>
yel low</w>
y u
yu an</w>
y ser</w>
y ou
y ond</w>
y n</w>
y d
yd ne
ydne y</w>
y azak
yazak i</w>
y ait</w>
y ach
yach ts</w>
y &apos;</w>
xim ité</w>
x yg
x y
x ford</w>
x em
xem bourg</w>
wri ters</w>
wre ck</w>
wr in
wrin k
wrink led</w>
wr apped</w>
wor ker</w>
wo ol</w>
wo ods</w>
wo ke</w>
wit ness</w>
wit n
wit ch</w>
win ging</w>
wil d
wi dow</w>
wi der</w>
whis ky</w>
wh ites</w>
wh en
when ever</w>
wel d</w>
weigh s</w>
we ig
weig h</w>
wat ch
was ted</w>
was hes</w>
war s</w>
war ning</w>
war mer</w>
wan ting</w>
wan na</w>
wai ter</w>
wai st</w>
w ounded</w>
w ol
w im
w all
wall et</w>
w aff
waff les</w>
vê tement</w>
véri fi
vé la</w>
voyag é</w>
voy ante</w>
voy ant</w>
voy agent</w>
volont aires</w>
vol eurs</w>
vol can
vo que</w>
vo ies</w>
vo ient</w>
viv ement</w>
vit re</w>
vit eur</w>
vit am
visit era</w>
visi onn
vis ité</w>
vis its</w>
virg in
vir é</w>
viol ence</w>
vio let
ving ts</w>
vin ce</w>
vin ai
vinai gre
vinaigre tte</w>
viend riez</w>
viend rait</w>
vie ws</w>
vie illes</w>
vidé os</w>
victi m</w>
vic time</w>
vi vions</w>
vi su
vi se</w>
vi rer</w>
vi ous</w>
vi f</w>
vi er</w>
vi ennes</w>
vi du</w>
vi br
veu ve</w>
vers ité</w>
verrou illé</w>
ver ing</w>
ver dict</w>
ver be</w>
ver b</w>
ven tes</w>
ven im
ven d</w>
ven ant</w>
vel ous</w>
veget ari
veget able</w>
van ter</w>
valis es</w>
vali se</w>
vali de</w>
val ue</w>
val u
valu able</w>
val able</w>
vac u
vac ations</w>
v ôtre</w>
v égétari
v ul
vul g
vulg aire</w>
v illes</w>
v il
v esti
v ends</w>
v ember</w>
v ated</w>
v at
vat ar</w>
v ari
v ain</w>
v ain
v ache</w>
utilis ée</w>
utilis ons</w>
utilis ant</w>
utili ses</w>
urin ating</w>
urg es</w>
urg ed</w>
ur é</w>
ur veille</w>
ur ine</w>
up iter</w>
univers it
universit aire</w>
uni tion</w>
uni qu
uni formes</w>
un shot</w>
un ks</w>
un healthy</w>
un happy</w>
un gar
ungar ian</w>
un for
un employed</w>
un easy</w>
un comfortable</w>
un able</w>
umbrel las</w>
um p
ul tim
ultim ate</w>
u te</w>
u ji</w>
u ine</w>
u er</w>
té rieur</w>
ty re</w>
ty r
ty pes</w>
twel ve</w>
tw right</w>
tw are</w>
tuy aux</w>
tur ée</w>
tu és</w>
tu red</w>
tu le</w>
tu ber
tuber cu
tt oned</w>
tt el
ttel ettes</w>
ts ch
tsch land</w>
tru sts</w>
tru sting</w>
tru st
trust worthy</w>
tru mp
trump et</w>
tru cs</w>
trouver ont</w>
trouver ai</w>
trouv ée</w>
trouv âmes</w>
trouv ons</w>
trouv a</w>
trou viez</w>
trop ical</w>
trop ho
trop he</w>
tromp ette</w>
trom peur</w>
trom bone</w>
tro l
tri stes</w>
tri st
tri ché</w>
tri cher</w>
tri angle</w>
trembl er</w>
trembl ements</w>
tre ize</w>
tre ats</w>
traver sons</w>
travel ed</w>
travaill ez</w>
travaill eur</w>
travaill erons</w>
trav els</w>
transpor ted</w>
transl ation</w>
trans pire</w>
trans mets</w>
trans lu
trans fu
transfu sions</w>
trai tez</w>
trai tes</w>
tradi tions</w>
tradi tion</w>
tradi tion
tr ône</w>
tr ous</w>
tr ine</w>
tr as</w>
tr ap</w>
tr ale</w>
tr ag
tr ade</w>
tr act</w>
tr ack</w>
tourn ez</w>
tourn eso
tourneso l</w>
tourn ent</w>
tourn a</w>
tour né</w>
tou gh</w>
tou chez</w>
tou ch
tos sed</w>
tor ren
torren ts</w>
tor ou
torou te</w>
tor cy
tom ate</w>
toil ettes</w>
to y</w>
to wer</w>
to wards</w>
to w
to vers</w>
to tale</w>
to ri
to ol</w>
to l
to e</w>
to cks</w>
tis su
tis me</w>
tionn elle</w>
tion ed</w>
tion ally</w>
tim bre</w>
ti ss
tiss ement</w>
ti ré</w>
ti rer</w>
ti ra</w>
ti p</w>
ti ls</w>
ti li
tili z
ti gre</w>
ti est</w>
ti ers</w>
ti ennes</w>
ti ennent</w>
ti enne</w>
ti ed</w>
ti cip
ti ci
thro po
thre at</w>
thr one</w>
thir teen</w>
thermo st
thermost at</w>
thermo dynam
ther mom
ther e
the ist</w>
the at
theat re</w>
th us</w>
th in</w>
th es
thes da</w>
th ence</w>
text book</w>
tex ting</w>
tes ter</w>
termin ée</w>
ter res</w>
ter res
ter mes</w>
ter ing</w>
ter bro
terbro t</w>
tent ative</w>
tend in
tend ency</w>
ten sions</w>
ten ions</w>
ten ed</w>
ten dit</w>
ten ais</w>
temp ted</w>
temp tation</w>
temp er</w>
tem por
teen ager</w>
teen ag
teenag ers</w>
techno logy</w>
tea ches</w>
te ph
teph en</w>
te book</w>
tax is</w>
tatou ages</w>
tatou age</w>
tat ori
tatori al</w>
tar di
tardi f</w>
tap e</w>
tan ning</w>
tal is
talis man</w>
tal ents</w>
tab le
table aux</w>
ta p</w>
t étan
t èrent</w>
t â
t z</w>
t une</w>
t terbrot</w>
t sun
tsun ami</w>
t rement</w>
t onn
tonn erre</w>
t less</w>
t lan
t ings</w>
t et
tet anus</w>
t est
test ament</w>
t eck</w>
t ank</w>
t aine</w>
t aill
t ai</w>
t act</w>
t ack</w>
sépar ées</w>
sépar er</w>
sépar ati
séparati stes</w>
séjour ner</w>
sé v
sé du
sé ance</w>
sè ches</w>
sympath ize</w>
sy n
sweat y</w>
swe ep</w>
sw am</w>
suy ama</w>
suspici on</w>
surviv ra</w>
surviv ed</w>
surviv al</w>
surveill ance</w>
sur vie</w>
sur venir</w>
sur rend
sur r
sur prendre</w>
sur prenant</w>
sur plomb
sur nom</w>
sur ger
surger y</w>
sur f
supplément aires</w>
suppli es</w>
super vis
super ior</w>
super flu
superflu ous</w>
super fici
sup érieur</w>
sup portable</w>
sup ply</w>
sun screen</w>
sun flower</w>
sul fu
suiv antes</w>
suit case</w>
suit able</w>
sui vit</w>
sugges tions</w>
suffici ent</w>
suff ered</w>
suff er</w>
suc cess
sub stances</w>
sub jec
sub ir</w>
su rez</w>
su ni
su jets</w>
stun ned</w>
stu pé
stru ggle</w>
stru c
struc ture</w>
stron gly</w>
sto le</w>
sti ques</w>
sti que</w>
sti le</w>
sti ens</w>
sti cks</w>
sti c</w>
ster fuck</w>
step s</w>
ste ering</w>
stat ut</w>
star ing</w>
stand s</w>
stand ards</w>
stand ard</w>
stam ps</w>
st rich</w>
st ok</w>
st ly</w>
st ers</w>
st ered</w>
st ations</w>
st are</w>
st an</w>
st amp</w>
st all
stall ing</w>
st ain</w>
st agi
stagi aire</w>
st ade</w>
st acked</w>
st able</w>
st a
ss ée</w>
squir rel</w>
spé cial</w>
sprin t</w>
sprin kle</w>
spr ang</w>
spor tif</w>
spon sors</w>
spic y</w>
spi ri
spi ders</w>
spee dy</w>
spee ding</w>
spectat ors</w>
spectat eurs</w>
spec tion</w>
spea kers</w>
sp y</w>
sp in
sp here</w>
sp h
sph ère</w>
sp an</w>
sp ade</w>
sp aci
sp ac
souv en
sour ce</w>
sour c
soulag é</w>
soulag ement</w>
souff ert</w>
sou tient</w>
sou thern</w>
sou per</w>
sou ffr
sou dure</w>
sou cis</w>
sou cieux</w>
sor row</w>
son ges</w>
som bres</w>
solu ble</w>
soli de</w>
soldi er</w>
sold at</w>
sol ent</w>
sol dering</w>
sof tware</w>
sof tly</w>
so w</w>
so re</w>
so le</w>
so le
so irs</w>
so ign
so ient</w>
so ie</w>
so cks</w>
so bre</w>
so ber</w>
sno ws</w>
sno w
sn akes</w>
smel ly</w>
sl ain</w>
ski p</w>
sk illed</w>
sk ier</w>
sit ter</w>
sin k</w>
sin ges</w>
sin ge</w>
sin es</w>
sil es</w>
sil ence</w>
sign al
signal er</w>
sig ner</w>
sidenti el</w>
si ère</w>
si tion</w>
si rs</w>
si mul
simul ation</w>
shoul der</w>
sho ws</w>
sho w
sho ot</w>
sho o
shoo ting</w>
sho e</w>
sho cked</w>
shir ts</w>
shin ing</w>
shi it
shiit ake</w>
she er</w>
shar pen</w>
shar p</w>
shar ks</w>
shap ed</w>
sha ken</w>
sh u
sh mal
shmal lows</w>
sexu els</w>
seu se</w>
seu les</w>
set backs</w>
servi r</w>
serv eur</w>
serv ation</w>
serv atif</w>
serv ants</w>
ser viteur</w>
ser te</w>
ser rez</w>
ser pen
serpen ts</w>
ser mon</w>
ser mon
ser ions</w>
ser aient</w>
separ ati
separati sts</w>
separ ate</w>
sent is</w>
sent ent</w>
sensi bles</w>
sen te</w>
sem i</w>
sel ler</w>
sel fie</w>
sel dom</w>
see ds</w>
secre tary</w>
secr étaire</w>
second aire</w>
secon ds</w>
secon des</w>
seas ons</w>
seas on</w>
seas es</w>
sear ching</w>
se yez</w>
se work</w>
se where</w>
se ins</w>
se in</w>
se ille</w>
se es</w>
se courus</w>
scul p
sculp ture</w>
scre w</w>
scr at
scrat ching</w>
scol ded</w>
scol aire</w>
scar f</w>
sav iez</w>
sauv ée</w>
sauv ages</w>
sau va</w>
sau ta</w>
sau rons</w>
sau ce</w>
sandwi ches</w>
sandwi ch
sandwich s</w>
sam ple</w>
sal ted</w>
sal ons</w>
sal es</w>
sai si</w>
sai lor</w>
sai gne</w>
saf er</w>
sac s</w>
sac red</w>
sa di
s winging</w>
s wal
s sent</w>
s plash</w>
s ources</w>
s ounding</w>
s onné</w>
s onn
s m</w>
s lam
s its</w>
s ites</w>
s giving</w>
s est</w>
s ends</w>
s cru
scru b
scrub bed</w>
s cold</w>
s bru
sbru ck</w>
s aurais</w>
s ar
sar cas
s aper</w>
s ap
sap in</w>
s ank</w>
s ang
sang lots</w>
s and</w>
s aisons</w>
s ais
sais it</w>
s aint</w>
s aine</w>
s ain
sain te</w>
rê vé</w>
rê ver</w>
rê v
réussi ra</w>
réus sit</w>
réus sir</w>
résou dra</w>
répon ses</w>
répon dit</w>
répar ez</w>
répar ation</w>
rép éter</w>
rép and
régl é</w>
régi me</w>
réfu gi
réfugi és</w>
réfléchis se</w>
rédu ite</w>
rédu ire</w>
rédi ents</w>
récon for
récon ci
récom pens
récompens és</w>
réclam é</w>
réc it</w>
réalis é</w>
ré véla</w>
ré volution</w>
ré v
ré sister</w>
ré sidentielle</w>
ré si
ré server</w>
ré proch
ré pan
répan dit</w>
ré ment</w>
ré fl
réfl exion</w>
ré chauff
ré agir</w>
ru se</w>
ru re</w>
ru min
ru in</w>
ru in
ru g</w>
roy ale</w>
rou é</w>
rou ve</w>
rou p</w>
rou le</w>
rou g
rou e</w>
ron y
rom pu</w>
rom pre</w>
rob inet</w>
ro wn</w>
ro tten</w>
ro t</w>
ro ssée</w>
ro que
roque fort</w>
ro pl
ropl ets</w>
ro ot</w>
ro ll
ro ir</w>
ro e</w>
ro di
rodi si
ro buste</w>
ro ast</w>
rist ina</w>
ris ked</w>
ris h</w>
rin c
rinc ess</w>
ridi cul
ridicul ous</w>
ri zon</w>
ri x</w>
ri val</w>
ri ted</w>
ri gou
ri fle</w>
ri ci
rici a</w>
rewar ded</w>
rever rons</w>
retour na</w>
reti rées</w>
reti ré</w>
reti rer</w>
retar dé</w>
retar ded</w>
rest ais</w>
ress ez</w>
respec té</w>
respec tueux</w>
respec tent</w>
respec ted</w>
respec te</w>
resour ceful</w>
rescu e</w>
res tiez</w>
res terai</w>
res pl
respl en
res idential</w>
requi red</w>
reques ted</w>
requ ête</w>
représent ation</w>
représent ant</w>
repe ate
repeate dly</w>
renom mée</w>
rend ra</w>
rend ait</w>
rencontr ées</w>
rencontr a</w>
ren tres</w>
ren ted</w>
ren tal</w>
ren own</w>
ren on
ren ier</w>
ren card</w>
remplac er</w>
rembour ser</w>
remar qué</w>
remar que</w>
remar qua</w>
rem porté</w>
rem et
reli ef</w>
reli able</w>
relation ship</w>
rel u
rel evant</w>
rel ations</w>
rel ation</w>
rel and</w>
rejo ins</w>
rejec ted</w>
regu lar</w>
regrett able</w>
regi stre</w>
regi ster</w>
regard ons</w>
regar ded</w>
refus er</w>
refus ait</w>
refus a</w>
refu ge</w>
refu ge
refuge es</w>
reconnaiss ant</w>
recomm ended</w>
recogni zed</w>
reci pe</w>
recherch ons</w>
recev oir</w>
recei ve</w>
rec ent</w>
reas on
reason able</w>
re ço
re volution</w>
re venge</w>
re tired</w>
re tenir</w>
re tenant</w>
re présenter</w>
re produ
re proche</w>
re prise</w>
re present</w>
re pose</w>
re pos
re porter</w>
re por
re place</w>
re plac
re passé</w>
re mu
re mo
re min
re ine</w>
re in
re h
re fres
re fl
re constru
re connu</w>
re connais</w>
re comman
re cherches</w>
re charg
re belle</w>
re bel
re and
re act</w>
ray ons</w>
ras ili
rasili a</w>
rand onn
ram ène</w>
ram en
ral enti
rais onn
raisonn able</w>
rais ing</w>
rain y</w>
rain bo
rainbo w</w>
rai ne</w>
rag ie</w>
radi um</w>
racon te</w>
rac y</w>
rac iste</w>
rac ist</w>
rac ines</w>
rac es</w>
ra q</w>
r ôti</w>
r ush</w>
r ror</w>
r ors</w>
r ond</w>
r o</w>
r l
rl ande</w>
r ings</w>
r ho
r ays</w>
r ational</w>
r ation
ration nel</w>
r ate</w>
r at</w>
r angé</w>
r anger</w>
r aft</w>
r able</w>
quotidi enn
quotidienn ement</w>
quit tez</w>
quit ta</w>
quel s</w>
quel con
quelcon ques</w>
quar ter</w>
quar ant
quarant aine</w>
qu és</w>
qu o</w>
qu ir
qu illes</w>
qu illage</w>
qu ez</w>
qu et</w>
qu erai</w>
qu ent</w>
pé d
pyram ids</w>
pyram ides</w>
puri fication</w>
pur pose</w>
pun is
punis h
punish ment</w>
pull ed</w>
pul sé</w>
puis ses</w>
puis sante</w>
puis que</w>
pu éri
pu yez</w>
pu té</w>
pu mp</w>
pu its</w>
pti an</w>
psy cho
prépar és</w>
prépar ées</w>
préoccup ation</w>
préf érence</w>
préf èrerais</w>
précis ément</w>
précis es</w>
pré voir</w>
pré sume</w>
pré som
pré servatif</w>
pré sents</w>
pré cé
pré co
préco ce</w>
pruden tes</w>
pru de</w>
provi ding</w>
prouv ez</w>
prouv ent</w>
prot ection</w>
propos a</w>
pronon ça</w>
pron once</w>
promo ted</w>
prom u</w>
prom it</w>
prom et</w>
progress er</w>
progr am</w>
profess eurs</w>
profes sions</w>
prof iter</w>
produc tifs</w>
produ ced</w>
proch a</w>
pro ximité</w>
pro viennent</w>
pro vide</w>
pro se</w>
pro pose</w>
pro ph
pro pag
pro of</w>
pro gres
pro c
priv il
prison er</w>
princip ales</w>
princip alement</w>
prin ts</w>
prin ted</w>
prin ce</w>
pri rent</w>
pri mée</w>
pret tiest</w>
pret ending</w>
preser ve</w>
pres idential</w>
pres ent
pres ence</w>
pres crit</w>
pres cri
prescri ption</w>
prend riez</w>
pren iez</w>
pre vious</w>
pre tend</w>
pr aise</w>
pous sière</w>
pous sa</w>
pour tant</w>
pour suivre</w>
pour suivi</w>
pour rions</w>
poup ées</w>
pou vions</w>
pou viez</w>
pou dre</w>
possè des</w>
posi tive</w>
posi tions</w>
pos ées</w>
pos ture</w>
pos tule</w>
pos ted</w>
pos eriez</w>
pos a</w>
port ent</w>
port ant</w>
port ais</w>
port a</w>
por tion</w>
por c</w>
popul ar
ponctu elle</w>
pon t</w>
pon ents</w>
pon enti
politici en</w>
politi cs</w>
poli ci
pol lu
pois on
poison ous</w>
poin te</w>
poi trine</w>
po é
po èmes</w>
po x</w>
po wer
po ols</w>
po lon
polon ais</w>
po llo</w>
po ker</w>
plu riel</w>
plu ral</w>
pleuv rait</w>
pleuv ra</w>
pleu res</w>
ple ins</w>
play ground</w>
plan té</w>
plan ter</w>
plaisan terie</w>
plais ent</w>
plain te</w>
plai sirs</w>
plai gn
plac é</w>
plac es</w>
pla ça</w>
pla ç
pl é</w>
pl orer</w>
pl orable</w>
pl exe</w>
pl ement</w>
pl em
pl ats</w>
pl ates</w>
pl at</w>
pl as
pl ains</w>
piè ge</w>
pizz eria</w>
piti é</w>
pit ching</w>
pisto let</w>
pir ate</w>
pin te</w>
pil ule</w>
piec es</w>
pick pocket</w>
pian iste</w>
pian ist</w>
pi rited</w>
pi ez</w>
pi est</w>
pi er
pier res</w>
photo syn
photo grap
photo copi
pho sp
pharmac ist</w>
pharm aci
pharmaci en</w>
ph on</w>
ph on
persu ad
personn ellement</w>
personn ages</w>
person ality</w>
person al</w>
permet tant</w>
perman ent</w>
per tes</w>
per sion</w>
per plexe</w>
per ons</w>
per met</w>
per form</w>
per form
perform ance</w>
per dit</w>
per des</w>
per d
per cep
percep tion</w>
per ate</w>
pens ée</w>
pen sions</w>
pen cha</w>
pein tures</w>
pein ts</w>
pein tre</w>
pea ceful</w>
pay check</w>
pati o</w>
pati enter</w>
pat tes</w>
pat rio
pat ent</w>
pass és</w>
pass ons</w>
pass ing</w>
pass es</w>
pass erai</w>
pass era</w>
pass ant</w>
pass ait</w>
partici pé</w>
parti ellement</w>
parti cip
parti ally</w>
parten aires</w>
part ners</w>
part agent</w>
part age</w>
paro v</w>
parl erai</w>
parl ais</w>
paress eux</w>
para ît</w>
para pluies</w>
par venue</w>
par venu</w>
par venir</w>
par v
par tly</w>
par tez</w>
par tement</w>
par i</w>
par fu
parfu m</w>
par faite</w>
par donné</w>
par donne</w>
par di
par as
paras ol</w>
par an
paran o
par am
par aly
paraly sée</w>
par aissez</w>
par ach
parach ute</w>
pap ill
pap ers</w>
pan ne</w>
pal estin
palestin i
pain tings</w>
pain ter</w>
pai erai</w>
pacifi ques</w>
p étrin</w>
p és</w>
p us
p unition</w>
p neu
p it</w>
p int</w>
p ino
pino za</w>
p ill</w>
p ill
p ful</w>
p ez</w>
p et</w>
p el
p aus
paus ed</w>
p anc
p am
p al</w>
p ages</w>
p ack
p ach
pach in
pachin ko</w>
p .
oy en</w>
ow ever</w>
over weight</w>
over looked</w>
ouv ez</w>
outr aged</w>
outr age</w>
out put</w>
out come</w>
ous se</w>
oun g</w>
oun es</w>
oun an</w>
oul é</w>
ou tils</w>
ou ter</w>
ou le</w>
ou ille</w>
ou illard</w>
ou b</w>
orm ous</w>
origin aire</w>
ori ze</w>
ori té</w>
ori ko</w>
ori entation</w>
organ isé</w>
ordin ary</w>
or é</w>
or te
or o</w>
or ld</w>
or i</w>
or es
or donna</w>
or donn
ordonn ance</w>
or ders</w>
or dering</w>
or d
ord an</w>
or c
or bite</w>
or as</w>
oppos ite</w>
open s</w>
op âtre</w>
op tique</w>
op k
opk ins</w>
op hy
ophy si
op a
opa tra</w>
oné reuse</w>
onn ette</w>
onn aise</w>
onn aire</w>
on ze</w>
on go</w>
on gles</w>
on gl
ongl er</w>
on es
ones tly</w>
olym pique</w>
oli c</w>
old man</w>
old est</w>
ol ed</w>
ok er</w>
ok ay</w>
oh am
oham med</w>
ograp he</w>
offen ser</w>
offen se</w>
off re</w>
off ended</w>
of fici
od eur</w>
occur red</w>
occup ées</w>
oc ío</w>
oc re</w>
oc a</w>
obé ir</w>
oblig ed</w>
obli gé</w>
objec ts</w>
objec ted</w>
ob u</w>
ob tient</w>
ob stin
ob in
obin son</w>
o ût</w>
o xyg
o ts</w>
o tic</w>
o strich</w>
o sau
o pardi
o lives</w>
o lis
olis h</w>
o es</w>
o ch
négo ci
nég lig
numéri que</w>
nu ll</w>
nu clé
nuclé aire</w>
nu age</w>
nov embre</w>
nour ris</w>
nour rir</w>
nor th</w>
nor mal
nor ma
norma le</w>
nor m
norm aux</w>
nor d</w>
nom s</w>
nom in
no where</w>
no ter</w>
no tebook</w>
ni gh
ni cot
nicot ine</w>
netto y
nes ty</w>
neigh bor
neighbor hood</w>
neigh bo
neighbo r</w>
neig é</w>
neig er</w>
neg ative</w>
nee dn</w>
ne ck</w>
ne ck
neck la
neckla ce</w>
ne c
naï ve</w>
nav ire</w>
nav i
navi guer</w>
nat ation</w>
nam ed</w>
nag ea</w>
nag e
nage ant</w>
na ked</w>
n ôtres</w>
n u</w>
n ted</w>
n son</w>
n sbruck</w>
n ou
n ons</w>
n ick
nick name</w>
n ever
never theless</w>
n as
nas ty</w>
n ar
nar row</w>
n app
n ais</w>
n ails</w>
n ail</w>
n agent</w>
méth ode</w>
méri tons</w>
médic am
médicam ents</w>
médec ine</w>
méd uses</w>
mécan ique</w>
mécan ici
mécanici en</w>
mé prise</w>
mé pri
mé nage</w>
mé lang
mélang e</w>
mé es</w>
myster y</w>
myst ère</w>
musici ens</w>
musici ans</w>
mus ez</w>
murmu ra</w>
multilingu al</w>
mu se</w>
mu lé</w>
mu g</w>
mp ;</w>
mour raient</w>
moun tains</w>
mou sines</w>
mou illé</w>
mou che</w>
morc eaux</w>
mor du</w>
montr é</w>
mont ag
montag nes</w>
mon y</w>
mon té</w>
mon tra</w>
mon tez</w>
mon tant</w>
mon key</w>
moder ne</w>
mo ves</w>
mo vement</w>
mo torcy
mo to</w>
mo tel</w>
mo stly</w>
mo squ
mo que</w>
mo e</w>
mo ck</w>
miséri corde</w>
misunder stood</w>
mis sing</w>
mis ery</w>
min y</w>
min eur</w>
min es</w>
milli ons</w>
milli onnaire</w>
milli onaire</w>
milli ards</w>
mili a</w>
mign onnes</w>
mic ro</w>
mi rror</w>
mi ons</w>
mi gr
migr aine</w>
mi gnon</w>
mi ens</w>
meth od</w>
met trons</w>
met tais</w>
mess ed</w>
mes ures</w>
merveill euse</w>
mer dé</w>
men é</w>
men u</w>
men tion</w>
men ter</w>
men te</w>
men songes</w>
men sion</w>
men acé</w>
mem orize</w>
mel on</w>
meilleu res</w>
medic al</w>
mechan ic</w>
mean ings</w>
mea sure</w>
me ets</w>
me eny</w>
may or</w>
may onnaise</w>
matéri el</w>
mathémati que</w>
mat o
mat ern
matern elle</w>
mat ed</w>
mas tered</w>
mas och
march ant</w>
march and</w>
march a</w>
mar velous</w>
mar shmallows</w>
mar rant</w>
mar k</w>
mar gar
margar ine</w>
mar ath
marath on</w>
manu elle</w>
manif es
manifes tation</w>
mand at</w>
man us
man ner</w>
man age</w>
man ag
manag ement</w>
mal sain</w>
mal ins</w>
mal igne</w>
mal heureux</w>
mal heur</w>
mal entendu</w>
mal ad
malad ro
magnifi que</w>
magas ins</w>
mag ici
ma quillage</w>
m ènent</w>
m un
m oul
m m</w>
m ful</w>
m eur</w>
m ere</w>
m ence</w>
m ant</w>
m aid</w>
m ai</w>
m ad
mad ness</w>
légu me</w>
lé opâtre</w>
lé cher</w>
ly fish</w>
lun dis</w>
lumi ères</w>
lu x
loy al</w>
lour ds</w>
lour de</w>
lour d</w>
lou p</w>
loo p</w>
loo dy</w>
lon ies</w>
load ed</w>
lo ween</w>
lo tion</w>
lo isi
loisi rs</w>
lo gue</w>
lo cated</w>
lo cales</w>
lo c
ll y
ll i</w>
ll et</w>
ll ard</w>
lis é</w>
lis sez</w>
lis sa</w>
lis ent</w>
lis ait</w>
lip stick</w>
lingu is
lig né</w>
lic king</w>
li és</w>
li ère</w>
li ts</w>
li p</w>
li mousines</w>
li ger</w>
li ft</w>
li chée</w>
li bres</w>
li b
li a</w>
lev ée</w>
lev ez</w>
lev a</w>
lem ons</w>
lec ture</w>
lec tion</w>
lea ther</w>
lea ped</w>
lea f</w>
le opatra</w>
le j
lej andra</w>
le i
lei sure</w>
le g
le f
lef tovers</w>
lav és</w>
lav age</w>
laugh ter</w>
laugh s</w>
lat est</w>
larg ement</w>
lar me</w>
lap in</w>
land aise</w>
lais serait</w>
labor at
laborat ory</w>
lab or</w>
la ïde</w>
la p</w>
l ète</w>
l ton</w>
l ted</w>
l ez</w>
l end
lend em
lendem ain</w>
l ence</w>
l am</w>
l aine</w>
l aide</w>
l ai
lai tiers</w>
l ac
lac ks</w>
kno cked</w>
kne es</w>
kilom ètres</w>
kil t</w>
kil ea
kilea ks</w>
kid ding</w>
keep er</w>
kaby le</w>
k ward</w>
k raine</w>
k ets</w>
k erv
kerv illes</w>
k er
ker chi
kerchi ef</w>
k ara
jug ez</w>
jug ement</w>
jud g
ju in</w>
ju ice</w>
jou ions</w>
jou euses</w>
jou et</w>
jou ant</w>
jou ait</w>
jou ais</w>
jo yeux</w>
jo y</w>
jo king</w>
jo ined</w>
jo bs</w>
jet é</w>
jel lyfish</w>
jec tion</w>
je opardi
jau ne</w>
japon aises</w>
j us</w>
j ongler</w>
j ong</w>
j o</w>
j ban</w>
j az
jaz z</w>
iti f</w>
it ée</w>
it ate</w>
it an
itan ic</w>
it alism</w>
it alien</w>
it ait</w>
istr ation</w>
ist es</w>
ist er</w>
issu es</w>
is ée</w>
is tres</w>
is sons</w>
is sez</w>
is sent</w>
is sant</w>
is ez</w>
ir réproch
ir régu
ir regular</w>
ir ont</w>
ir ons</w>
ir ac
irac ul
intéress ées</w>
intéress ée</w>
intéress ent</w>
inté ri
intimi dée</w>
interrup ting</w>
interrom pre</w>
interrom pez</w>
interro ger</w>
inter f
interf ere</w>
inter cep
inter action</w>
int act</w>
insul ting</w>
instru ments</w>
institu trice</w>
inst antly</w>
inspi red</w>
inse cure</w>
inse c
inju ry</w>
ing rédients</w>
informati que</w>
inform é</w>
infor mer</w>
influ ences</w>
influ ence</w>
inf liger</w>
inf anti
infanti le</w>
industri alis
indu l
indic ation</w>
indi vidu</w>
incroy ablement</w>
incre di
incredi bly</w>
incorrigi ble</w>
incon nue</w>
incon c
inclu sion</w>
in verse</w>
in vent</w>
in utile</w>
in tu
in supportable</w>
in spection</w>
in solent</w>
in obu</w>
in o</w>
in ner</w>
in k</w>
in justice</w>
in iti
in gre
ingre di
in gen
ingen ious</w>
in différent</w>
in connus</w>
in connu</w>
in com
in col
incol n</w>
in cl
incl ina</w>
in ce</w>
in capable</w>
in av
import ance</w>
impati ently</w>
imp ôts</w>
imp sons</w>
immédi at</w>
immor tal</w>
imme di
immedi ate</w>
imbé ci
imbéci le</w>
imagin ed</w>
imagin able</w>
im proving</w>
im proved</w>
im probable</w>
im primé</w>
im poli</w>
im per
im parti
im eriez</w>
illu sions</w>
illu sion</w>
illi r</w>
ill és</w>
ill top</w>
ill ade</w>
il yn</w>
il son</w>
il ma</w>
il lie</w>
ignor es</w>
ignor ait</w>
ignor a</w>
ign ez</w>
ig ni
ig ned</w>
idi om
identi té</w>
identi fication</w>
id son</w>
ick Dis
ickDis play</w>
ic s</w>
ic on</w>
ic eb
iceb er
iceber g</w>
ic ass
icass o</w>
i tive</w>
i tions</w>
i o</w>
i eux</w>
i er
ier rot</w>
i cop
icop ter</w>
i bé
ibé rez</w>
i ans</w>
hô tels</w>
héri tage</w>
hé sit
hy dro
hydro g
hur ts</w>
hur le</w>
hun ger</w>
hun dre
hundre ds</w>
hun ch</w>
humili ée</w>
humili ated</w>
human ité</w>
hu main</w>
hu la</w>
hu ile</w>
hou sework</w>
horri fied</w>
hor ror</w>
hoo p</w>
honn êteté</w>
hon gro
hon ey
honey moon</w>
hon es
hones ty</w>
hom o
holi days</w>
ho stile</w>
ho rizon</w>
ho pes</w>
ho p</w>
ho ever</w>
ho c
hoc key</w>
histo ri
hi ér
hi re</w>
hi que</w>
hi ma</w>
hi lip</w>
hi le</w>
hi king</w>
her it
hel ping</w>
hel pful</w>
hel icopter</w>
heav ens</w>
hear t
hea ded</w>
he els</w>
hau tement</w>
harv est</w>
hari cots</w>
hard est</w>
har mful</w>
har m</w>
har amp</w>
happ ily</w>
hap piest</w>
hap pier</w>
hand led</w>
hand kerchief</w>
hand ful</w>
hand ball</w>
ham bur
hambur ger</w>
hal f
half way</w>
habitu ée</w>
habit ez</w>
hab illé</w>
hab ille</w>
hab ill
hab iles</w>
h élicoptère</w>
h stan</w>
h rodisi
h o</w>
h its</w>
h illtop</w>
h ills</w>
h ers</w>
h en</w>
h aï
h ated</w>
h an
gê né</w>
gér é</w>
gé ants</w>
gâ teaux</w>
gy m</w>
guim bar
guimbar de</w>
guim au
guimau ves</w>
guer res</w>
gu éri</w>
gu m</w>
gu ish</w>
gu ise</w>
gu ides</w>
gu eux</w>
gu ch
guch i</w>
gu ards</w>
grow th</w>
gro sses</w>
great ly</w>
gre es</w>
gre ater</w>
gratu it</w>
grap es</w>
gr ès</w>
gr ounds</w>
gr on
gr av
gr ais</w>
gr aines</w>
gr ade</w>
gr ab</w>
goû te</w>
gou ttelettes</w>
go v</w>
go sses</w>
go sse</w>
go slav
go o
gn ées</w>
glo ire</w>
glis sé</w>
gl é</w>
gl ory</w>
gl ing</w>
gig ant
gigant esque</w>
gi ques</w>
gi f
gif ted</w>
gi ez</w>
gi en</w>
gi ants</w>
gho st</w>
gh tened</w>
gh ouse</w>
gg est</w>
gener al</w>
gen uine</w>
ge yser</w>
gau fr
gaufr es</w>
gasp iller</w>
gard ons</w>
gar é</w>
gam bling</w>
galax ie</w>
gag é</w>
g éri
g ust</w>
g unshot</w>
g renier</w>
g out
g mati
g lu
g is
g ent</w>
g ence</w>
g ation</w>
g ain</w>
g a
ga z</w>
fê té</w>
fus illade</w>
fus il</w>
fu se</w>
fu cked</w>
fri tes</w>
fri ghtened</w>
fri es</w>
fri ed</w>
fri dge</w>
frapp ée</w>
frapp er</w>
fran cs</w>
fr ustr
fr ame</w>
fourch ettes</w>
foun d
fou tu</w>
fou tre</w>
fou illa</w>
formul aire</w>
form ité</w>
form ez</w>
forc ez</w>
for ty</w>
for tes</w>
for tement</w>
for ks</w>
for given</w>
for getting</w>
for cé
forcé ment</w>
fond ement</w>
fonc é</w>
fon dé</w>
fon ds</w>
fon dit</w>
fon ction</w>
fol lows</w>
fol ded</w>
foc used</w>
fo ss
fo oled</w>
fo o</w>
fo g</w>
flu ores
flu ently</w>
flu ctu
flav or</w>
flas h
flag s</w>
fl u</w>
fl our</w>
fl att
fl at
fix ion</w>
fix ed</w>
finan cier</w>
finan cial</w>
fin s</w>
fin ger
fin ed</w>
fin ale</w>
fif teen</w>
fichi er</w>
fic tion</w>
fi ée</w>
fi èvre</w>
fi rent</w>
fi la</w>
fi ers</w>
fi anç
fianç ailles</w>
ff é</w>
feu ille</w>
festi val</w>
fer tiliz
fer red</w>
fer ont</w>
fer mées</w>
fen se</w>
fem ale</w>
fel low</w>
fe eding</w>
fe ars</w>
fav ori</w>
fav eur</w>
fati gue</w>
fashi on</w>
fas sions</w>
fas siez</w>
fas cin
far ine</w>
famili er</w>
fai siez</w>
fai né
fai lli</w>
fai lle</w>
fai l</w>
fai bles</w>
fac tures</w>
fac ts</w>
fac iles</w>
fa çons</w>
f êtes</w>
f élicité</w>
f ts</w>
f teck</w>
f red</w>
f r</w>
f out</w>
f out
f ounded</w>
f light</w>
f lic</w>
f le
f forcez</w>
f ers</w>
f ed</w>
f ate</w>
f at
fat al</w>
f arm</w>
f ans</w>
f an</w>
ey mar</w>
expéri ment
expri mer</w>
explo ser</w>
explo itées</w>
explo de</w>
expli querai</w>
expli qua</w>
expl or
expl aining</w>
experi ences</w>
expec ting</w>
expec tations</w>
exp and
expand ing</w>
exist er</w>
exig ent</w>
exi sts</w>
exi ge</w>
excep t</w>
excel lence</w>
exc usé</w>
exc lu
exc itait</w>
exam s</w>
exam iner</w>
exam ined</w>
exam ine</w>
exac tes</w>
ex écuter</w>
ex térieur</w>
ex pos
ex ponenti
ex penses</w>
ex orc
ex it</w>
ex h
ex ag
ew ton</w>
ev é</w>
ev ing</w>
ev in</w>
ev ent</w>
euro s</w>
eu tschland</w>
eu rent</w>
estin ian</w>
esti ques</w>
esti mated</w>
esti mate</w>
est ors</w>
essenti elle</w>
essay ons</w>
essay e</w>
essai m</w>
ess ness</w>
ess ay</w>
espér ée</w>
espér ons</w>
esp ea
espea re</w>
escap ed</w>
escali ers</w>
escali er</w>
escal ader</w>
esc o</w>
es us</w>
es té</w>
es table</w>
es sor</w>
es sion</w>
es sible</w>
es pi
es cor
es ch
esch ato
ern ard</w>
er rors</w>
er rati
er old</w>
er mez</w>
er lin</w>
er ies</w>
er ez</w>
er born</w>
er able</w>
ep tive</w>
ep endant</w>
environ mental</w>
enva hi</w>
env y</w>
entraî ne</w>
entr ées</w>
enti èrement</w>
entend ue</w>
ent ées</w>
ent our
ent h</w>
enregistr é</w>
ennuy ais</w>
ennu i</w>
ennem is</w>
enn y</w>
enn on</w>
engag ed</w>
eng ed</w>
eng ager</w>
enfu ir</w>
enem ies</w>
endur er</w>
endro its</w>
endor mie</w>
endommag ée</w>
end rix</w>
end rier</w>
end ings</w>
end ang
endang ered</w>
enc re</w>
en ver
en velop
en us</w>
en tres</w>
en tendit</w>
en suite</w>
en sole
en registre</w>
en rag
en ormous</w>
en grais</w>
en fila</w>
en courage</w>
en cour
en counter</w>
en ab
emprun té</w>
employ és</w>
emplo yé</w>
emplo ie</w>
emp rein
embrass é</w>
embr ay
embray age</w>
embr asse</w>
embarrass ée</w>
embarrass é</w>
embarrass ing</w>
emb ê
emb au
em pirer</w>
em per
em o
em mener</w>
em ent
em bl
electri city</w>
el t</w>
el son</w>
el sewhere</w>
el oped</w>
el ling</w>
el ev
el et</w>
el essness</w>
el e
ele ph
el a</w>
ei ch
eich elt</w>
effray er</w>
effec ts</w>
eff on
eff acer</w>
ef s</w>
ef force</w>
edu cation</w>
edu cated</w>
ec ember</w>
eas iest</w>
eas ed</w>
earthqu akes</w>
ear ed</w>
ear chers</w>
e x</w>
e thesda</w>
e qui
e orge</w>
e ing</w>
e eny</w>
e ds</w>
e dic
e bus
ebus sy</w>
e bre
e as</w>
e ante</w>
e ager</w>
e B
eB ay</w>
déç ues</w>
détru ire</w>
détermin ée</w>
détermin é</w>
dét end
dét aill
dési rez</w>
dés espérée</w>
dés as
désas tre</w>
dés agréable</w>
dér angé</w>
dépou illé</w>
dénu é</w>
démé nager</w>
démocr atie</w>
démissi onner</w>
déli cieusement</w>
déjeu ne</w>
dégr ad
dégrad ant</w>
défil é</w>
décé dée</w>
décl ina</w>
déc ès</w>
déc embre</w>
débarrass er</w>
dé vis
dé veloppé</w>
dé vas
dé sir</w>
dé sin
dé sh
dé serte</w>
dé roule</w>
dé puté</w>
dé préci
dé plais
dé pit</w>
dé pense</w>
dé passé</w>
dé partement</w>
dé mener</w>
dé marre</w>
dé mar
dé laïde</w>
dé gagé</w>
dé fini</w>
dé fin
dé fie</w>
dé fense</w>
dé faite</w>
dé coll
dé but
début ants</w>
dé bu
débu tant</w>
dé br
débr ouilles</w>
dé bat</w>
dé b
dynam ite</w>
dum ber</w>
dum b</w>
du rée</w>
du rent</w>
du o</w>
dri ves</w>
dri an</w>
dres ses</w>
dream ing</w>
dream ed</w>
dre w</w>
drag on</w>
dra wings</w>
dr u
dr aw
draw ing</w>
dr ap
drap eaux</w>
dr am
dram ati
down stairs</w>
dou cement</w>
dou c
douc eur</w>
dorm ant</w>
dor énavant</w>
dor mis</w>
dor mais</w>
dor maient</w>
donn erai</w>
dom estiques</w>
doll s</w>
docu ment</w>
do tée</w>
do té</w>
do tes</w>
do gmati
divor cer</w>
distribu é</w>
distribu ted</w>
distin guish</w>
dist ances</w>
dispu tent</w>
dispu te</w>
dispos er</w>
dispos able</w>
disponi ble</w>
dispar aissent</w>
diso be
disobe yed</w>
discus sion</w>
disco very</w>
disco ver</w>
dis su
dis si
dis que</w>
dis pirited</w>
dis persion</w>
dis liked</w>
dis h</w>
dis crimin
dis courage</w>
dis charged</w>
dis as
dis ant</w>
dis agree</w>
dirige a</w>
direc tement</w>
diplom ate</w>
diplom at</w>
dipl ôme</w>
din osau
din gs</w>
dig ital</w>
difficul ties</w>
differ ently</w>
differ ences</w>
diff éremment</w>
diff ers</w>
diff er</w>
dic tatorial</w>
dic ate</w>
diam ond</w>
diam ant</w>
dial ecte</w>
dial ect</w>
di é</w>
di ves</w>
di vers</w>
di tés</w>
di te</w>
di son</w>
di seases</w>
di riez</w>
di rais</w>
di r</w>
di minu
di mension</w>
di eting</w>
di et</w>
di en</w>
di ary</w>
di agon
devo ted</w>
devin é</w>
devin rent</w>
devin ette</w>
dev ra</w>
dev ions</w>
dev il</w>
dev iez</w>
dev eloped</w>
dev ast
devast ated</w>
det ai
detai led</w>
destin ée</w>
destin y</w>
dess ous</w>
dess ins</w>
dess in</w>
descri ption</w>
descri be</w>
desc ended</w>
desc end</w>
des perate</w>
des igners</w>
des cen
descen dit</w>
derni èrement</w>
derni ers</w>
der ive</w>
der ation</w>
den te</w>
demand ent</w>
demand ais</w>
dem ocracy</w>
dem ment</w>
dem ie</w>
dem eurent</w>
dem an
del ayed</w>
defe ated</w>
defe at</w>
decid ing</w>
dec eptive</w>
dec ent</w>
deb t</w>
deb ate</w>
dea f</w>
dea d
dead line</w>
de pressed</w>
de grés</w>
de grees</w>
de fec
de bit</w>
dd ly</w>
dd hi
dans é</w>
dan sa</w>
dam n</w>
dam age</w>
d î
d war
d ust</w>
d un
d ness</w>
d le</w>
d ges</w>
d ette</w>
d en</w>
d ant</w>
d ancer</w>
d ame</w>
cô tés</w>
cy m
cy ber
custom s</w>
custom ers</w>
custom ed</w>
curren cy</w>
curios ité</w>
curios ity</w>
curi euse</w>
cur ry</w>
cul ti
cue ill
cu le</w>
cu late</w>
cu ir</w>
crédi ts</w>
cré tin</w>
cré er</w>
cru tches</w>
cru ci
cruci fixion</w>
croy able</w>
crow ded</w>
crois sance</w>
cro yons</w>
cro ss</w>
cro irez</w>
criti cism</w>
criti cal</w>
crimin el</w>
cri er</w>
cri ed</w>
crain te</w>
crain t</w>
craign ez</w>
cr ée</w>
cr ue</w>
cr ap</w>
cr aft</w>
cr a
coû ter</w>
couver tures</w>
cous ins</w>
cous ine</w>
cour u</w>
cour ts</w>
cour rier</w>
coup ent</w>
coun ts</w>
coun tless</w>
coun ting</w>
cou ples</w>
corri gé</w>
correspond ant</w>
correspond ait</w>
correspon d</w>
correc ted</w>
cop y
convin ce</w>
convainc us</w>
contr ar
contrar ier</w>
contr airement</w>
contr a
contra diction</w>
conten u</w>
conten ts</w>
conten ted</w>
constru ite</w>
constitu tionnellement</w>
const antly</w>
conspi racy</w>
consom mation</w>
considér ée</w>
considér ons</w>
considér ablement</w>
considé ré</w>
considé rer</w>
consi ste</w>
conserv é</w>
conse quences</w>
connaiss ons</w>
connaiss ances</w>
confis qué</w>
confis cated</w>
confir mé</w>
confi dent</w>
confi ant</w>
confec tionné</w>
conf lit</w>
conf lict</w>
condu ite</w>
condu iront</w>
condu c
conduc teur</w>
condition ing</w>
condition ed</w>
condi tions</w>
concer ns</w>
concer nant</w>
concentr és</w>
con viendra</w>
con version</w>
con ver
con tenir</w>
con sum
con sist
con jug
con fusion</w>
con fron
con formité</w>
con ference</w>
con do
compos ée</w>
compos ants</w>
comport ent</w>
compl éter</w>
compl ète</w>
compl ex
compl ets</w>
compl aint</w>
compati bles</w>
compati ble</w>
compan ions</w>
compag nons</w>
comp elled</w>
comp as
compas sion</w>
commun ity</w>
commun isme</w>
commun ism</w>
commun ic
commun auté</w>
commer ci
comm is</w>
comm ettre</w>
comm ents</w>
combus tion</w>
com pu
com promis</w>
com prenez</w>
com prendrais</w>
com prendrai</w>
com ponents</w>
com fort</w>
colli sions</w>
collec tion</w>
collabor ative</w>
coll è
coll ap
collap sed</w>
col ours</w>
col onne</w>
col lier</w>
cock tail</w>
co p</w>
co lonies</w>
co lo
co in
co de</w>
clut ch</w>
clu sterfuck</w>
clou dy</w>
clou d</w>
clo thing</w>
clo set</w>
clo sest</w>
clo che</w>
clo ch
clim bed</w>
clim at</w>
cli mato
cli ents</w>
class mates</w>
clari fication</w>
cl aus
claus tropho
cl ap</w>
cl aire</w>
cl aim
claim s</w>
ck er</w>
civ il</w>
circum stances</w>
cir rho
cir c
cid ents</w>
ci ties</w>
chu tes</w>
chu te</w>
choo sing</w>
chirur gie</w>
chil dish</w>
chi eving</w>
chi enne</w>
cherch eurs</w>
cherch ais</w>
cher a</w>
chem ises</w>
chea per</w>
chea p</w>
che wing</w>
che f</w>
che ated</w>
chat te</w>
charg é</w>
charg er</w>
char mant</w>
char ac
charac ters</w>
chap ter</w>
challen ger</w>
ch érie</w>
ch ères</w>
ch èque</w>
ch unks</w>
ch oux</w>
ch or
ch im
ch ec
ch ass
ch and
ch air
chair person</w>
ch ain</w>
cer f</w>
cer cle</w>
cen trale</w>
cen tes</w>
cen s
caus er</w>
cath oli
cat as
catas trophe</w>
cat alo
cas ino</w>
care er</w>
car ré</w>
car rying</w>
car ottes</w>
car es</w>
car elessness</w>
car di
capit alisme</w>
capit ale</w>
capac ité</w>
cap turée</w>
cap tured</w>
cap ture</w>
cap ital</w>
cand le</w>
cand inav
cancel ed</w>
canc el</w>
can on</w>
can ard</w>
cam pus</w>
cal ories</w>
caf étéria</w>
cad ette</w>
cach es</w>
cach ait</w>
c â
c our</w>
c o</w>
c enti
c el</w>
c eau</w>
c asse</w>
c arried</w>
c arri
c aill
caill ou</w>
c ab
cab b
c a</w>
c a
bé quilles</w>
bâ ton</w>
bâ tard</w>
but tocks</w>
but ter
bur sting</w>
bur nt</w>
bur ning</w>
bur n</w>
bun tu</w>
bun ch</w>
bul b</w>
bu ying</w>
bu llet</w>
brun s</w>
bronz age</w>
britanni que</w>
brio che</w>
brill er</w>
bri dge</w>
bri be</w>
brea the</w>
brea ks</w>
brea king</w>
bre v
bre ment</w>
bre asts</w>
bre ast</w>
brac elet</w>
br un</w>
br ouillard</w>
br ings</w>
br ave</w>
br ain
br a</w>
boy cot
bow l</w>
bou tonne</w>
bou illie</w>
bou cle</w>
bor ac
borac as
boracas li</w>
boo ts</w>
bon homme</w>
bon bons</w>
bois sons</w>
bo wed</w>
bo ttes</w>
bo l</w>
blu ff
blo quée</w>
blo cked</w>
bli n</w>
bless ées</w>
bles sures</w>
ble eding</w>
blan kets</w>
blan ches</w>
blag ues</w>
bl ushed</w>
bl eue</w>
bl anc
blanc s</w>
bl ack
black board</w>
bizar res</w>
bir th</w>
bicy cles</w>
bi got</w>
bi ggest</w>
bi fteck</w>
bi ens</w>
betr ay</w>
beso ins</w>
bes ide</w>
ber t</w>
ber ceau</w>
benef its</w>
benef it</w>
ben e
ben ch</w>
believ able</w>
beli efs</w>
begin ners</w>
begin ner</w>
beg ged</w>
beg gars</w>
bear ing</w>
be yond</w>
be ings</w>
be having</w>
be g</w>
be c</w>
be ard</w>
be ans</w>
batt ait</w>
bat tery</w>
bat terie</w>
bat h</w>
bas tard</w>
bas ket</w>
bar re</w>
bar om
bar ks</w>
bar be</w>
bar a</w>
banan es</w>
banan as</w>
banan a</w>
ban jo</w>
ban ane</w>
ball on</w>
bal les</w>
bal ay
balay er</w>
bal ance</w>
bag ue</w>
bag ar
bab y
ba ked</w>
b êti
b ygones</w>
b ounce</w>
b oul
b loody</w>
b in</w>
b in
b il
b ead</w>
b av
b ath
b ass</w>
b arri
b ama</w>
b ain</w>
aî née</w>
azak hstan</w>
az ar
azar eth</w>
az a</w>
ay oko</w>
ay ne</w>
aw oke</w>
aw kward</w>
aw fully</w>
aw are</w>
avou er</w>
avo cate</w>
aver tissement</w>
av ère</w>
av enged</w>
autru che</w>
autoris ée</w>
autori sa</w>
autom obiles</w>
auth or</w>
augment ent</w>
augment ation</w>
audi ence</w>
au trement</w>
au toroute</w>
au to</w>
au ront</w>
attr active</w>
atti ré</w>
attend ant</w>
atten tif</w>
atten te</w>
atten dit</w>
attemp t</w>
att ement</w>
att ar
att aque</w>
ati ques</w>
athle tic</w>
ath s</w>
ath lé
ath lète</w>
ath ed</w>
at tic</w>
at mo
at a.
ata. gov</w>
assum ptions</w>
assi ettes</w>
assi eds</w>
ass it</w>
ass embl
ass au
ass ass
ass ais
aspir ine</w>
aspi rin</w>
aspec t</w>
asi lissa</w>
as tro
as te</w>
as sister</w>
as parov</w>
as p</w>
as kervilles</w>
as ka</w>
as ak
asak i</w>
arti fici
arriver as</w>
arriver ai</w>
arriver a</w>
arriv ées</w>
arriv âmes</w>
arriv ons</w>
arriv ing</w>
arri ères</w>
ari th
ard ez</w>
ard anus</w>
arch éty
arai gnées</w>
arab e</w>
ar se</w>
ar rest</w>
ar r
ar my</w>
ar mes</w>
ar gue</w>
ar es</w>
ar ed</w>
ar eas</w>
ar c</w>
ar ah</w>
appréci erais</w>
appréci era</w>
appro xim
appr enne</w>
applic ations</w>
applic ation</w>
appl au
appell erai</w>
appell era</w>
appel lent</w>
appel a</w>
appe ars</w>
appe aled</w>
appar entées</w>
aper çu</w>
ap te</w>
ap pu
ap prouve</w>
ap porté</w>
ap porterai</w>
ap hrodisi
ap eu
any time</w>
anti constitutionnellement</w>
anti cip
ant ages</w>
answ ers</w>
annu lé</w>
annon cer</w>
ann once</w>
ank sgiving</w>
anim ation</w>
anim a</w>
ani guchi</w>
ang ed</w>
and range</w>
and ouille</w>
and ela</w>
anci ent</w>
anci en</w>
anc êtres</w>
anc estors</w>
anc esco</w>
an z</w>
an thropo
an que</w>
an no
an mar</w>
an ette</w>
an alo
améric ains</w>
améric ain</w>
amélior ée</w>
amus ée</w>
ambi tious</w>
amb ass
amaz ed</w>
am uses</w>
am used</w>
am poule</w>
am pa</w>
am ic
am er</w>
am ateurs</w>
am ant</w>
am ak
amak o</w>
alph anu
aller gies</w>
all as</w>
all ant</w>
alis tic</w>
alis te</w>
alis t</w>
alis er</w>
ali stes</w>
ali for
al tru
al pin
al lows</w>
al loween</w>
al low</w>
al li
al géri
al ert</w>
al as</w>
al arm</w>
ak ongo</w>
ak espeare</w>
ak agawa</w>
ajou tées</w>
ajou ter</w>
ais ée</w>
ais se</w>
ais ance</w>
air o</w>
aim able</w>
ail ai
ailai ba</w>
ai son</w>
ai gu
ai dés</w>
agressi vité</w>
aggres sion</w>
ag ress
ag non</w>
ag asaki</w>
ag an</w>
affir mer</w>
affi cher</w>
advis er</w>
adverti sing</w>
adverti sements</w>
adul tes</w>
adu isez</w>
adress ées</w>
adoles cents</w>
admin istration</w>
admi ré</w>
admi red</w>
admi rab
ad vise</w>
ad vers
ad s</w>
ad mets</w>
ad il</w>
ad erborn</w>
actu ari
acti f</w>
act ors</w>
act eurs</w>
acqui sition</w>
ach evé</w>
acc usée</w>
acc user</w>
acc us
acc essible</w>
acc ess</w>
ac ting</w>
ac rony
ac quérir</w>
ac ques</w>
ac customed</w>
ac cro
ac count</w>
ac compagner</w>
ac cidents</w>
ac cident
aby l
absur d</w>
abstr act</w>
absor be</w>
absolu te</w>
abo ard</w>
aband onné</w>
ab stiens</w>
ab solu</w>
ab sente</w>
ab sence</w>
ab ri</w>
ab attement</w>
ab ah</w>
a waiting</w>
a qué</w>
a ked</w>
a des</w>
a S
aS C
aSC RI
aSCRI P
aSCRIP T</w>
Z ailaiba</w>
Yuk io</w>
Yuk awa</w>
Y oung</w>
Y ear</w>
Y 2
Y2 K</w>
Wi kileaks</w>
War craft</w>
W orld</w>
W ilson</w>
W hoever</w>
W ester
W ayne</w>
V o
V ince</w>
V enus</w>
V asilissa</w>
Ur anus</w>
Uni versity</w>
Un believable</w>
U kraine</w>
U buntu</w>
U S</w>
Tu fts</w>
Tr ouvez</w>
Tr aduisez</w>
Ti bet</w>
Th anksgiving</w>
T itanic</w>
T im</w>
T ickDisplay</w>
T ed</w>
T aniguchi</w>
St eve</w>
St ampa</w>
Son ia</w>
Sh ounan</w>
Sh inobu</w>
Sh akespeare</w>
Se con
Sal z
Sach s</w>
Sach iko</w>
SW F</w>
S ydney</w>
S urveille</w>
S tephen</w>
S pot</w>
S pinoza</w>
S impsons</w>
S ee</w>
S candinav
S ayoko</w>
S ato</w>
S arah</w>
S andra</w>
S ally</w>
S abah</w>
S D</w>
Ro me</w>
Res nais</w>
Res earchers</w>
Re agan</w>
RI C</w>
R ocío</w>
R obinson</w>
R ick</w>
R h
R even
R em
R eichelt</w>
R A
RA M</w>
Que en</w>
Pythag ore</w>
Pythag oras</w>
Pu a</w>
Portu gal</w>
Pat ricia</w>
Par k</w>
Pal estinian</w>
Pal ais</w>
P ère</w>
P réparez</w>
P rouve</w>
P rincess</w>
P is
P ierrot</w>
P icasso</w>
P hilip</w>
P haramp</w>
P en
P e
P aderborn</w>
P acifi
P M</w>
Ori on</w>
O xford</w>
O scar</w>
O liver</w>
O kin
O bama</w>
No vember</w>
No tre</w>
No bel</w>
Na ples</w>
Na omi</w>
Na oko</w>
N ouv
N oriko</w>
N eymar</w>
N ewton</w>
N elson</w>
N azareth</w>
N ash</w>
N ara</w>
N apo
N akagawa</w>
N agasaki</w>
My anmar</w>
Mon roe</w>
Mon go
Mon drian</w>
Mon days</w>
Mo zart</w>
Mis hima</w>
Mil an</w>
Mi yazaki</w>
Mi ho</w>
Mat t</w>
Mat suyama</w>
Mat oub</w>
Mar ty</w>
Mar tin</w>
Mar seille</w>
Mar ilyn</w>
Mal i</w>
Mag ic</w>
M us
M t</w>
M oyen</w>
M ont</w>
M ohammed</w>
M me</w>
M iracul
M er
M ay</w>
M ax</w>
M andela</w>
M age</w>
Lu xembourg</w>
Lu ther</w>
L éa</w>
L une</w>
L ounes</w>
L incoln</w>
L ibérez</w>
L ennon</w>
L ang
L a
L SD</w>
L O
Kaby lie</w>
Kaby le</w>
K evin</w>
K eller</w>
K azakhstan</w>
K athy</w>
K asparov</w>
K akongo</w>
Ju lie</w>
Ju ba</w>
Joh nson</w>
Jo e</w>
Jim my</w>
Jim i</w>
Je anette</w>
Jav aSCRIPT</w>
Jav a</w>
J ésus</w>
J upiter</w>
J une</w>
J ordan</w>
J ill</w>
J enny</w>
J acques</w>
J ack</w>
Is lam</w>
In nsbruck</w>
In formez</w>
In deed</w>
In croyable</w>
I rlande</w>
I rish</w>
I reland</w>
I raq</w>
I ran</w>
Hum mer</w>
Honn êtement</w>
Honn i</w>
Ho oker</w>
Hit omi</w>
Hit ler</w>
Hen ry</w>
Hen an</w>
Har ry</w>
Har bin</w>
H ungarian</w>
H owever</w>
H opkins</w>
H onestly</w>
H erold</w>
H endrix</w>
H alloween</w>
Gu erre</w>
Gre at</w>
Ger mans</w>
G roup</w>
G oro</w>
G oldman</w>
G eorge</w>
G aza</w>
G ardez</w>
G andrange</w>
G agnon</w>
G ables</w>
Fri tz</w>
Franç ois</w>
Fr anz</w>
Fr ancesco</w>
Fa ther</w>
F élicitations</w>
F uji</w>
F red</w>
F in
F ill</w>
F ermez</w>
F anta</w>
F adil</w>
F B
FB I</w>
Ex plorer</w>
Egy ptian</w>
E uler</w>
E ric</w>
E milia</w>
E fforcez</w>
E dison</w>
Du blin</w>
Dav idson</w>
Dav id</w>
D ét
D roplets</w>
D ilma</w>
D eutschland</w>
D ecember</w>
D ebussy</w>
D ardanus</w>
D ame</w>
D allas</w>
Cre ative</w>
Corri gez</w>
Contin u
Con si
Con grès</w>
Com mun
Com mons</w>
Col bert</w>
Co la</w>
Christop her</w>
Christop he</w>
Christi ans</w>
Chil i</w>
Char tres</w>
Cath olic</w>
Car twright</w>
Car lton</w>
Cap itu
Cap italism</w>
Canadi ens</w>
Canadi en</w>
Canadi ans</w>
Canadi an</w>
C ro
C ristina</w>
C oca</w>
C léopâtre</w>
C leopatra</w>
C hile</w>
C ependant</w>
C athy</w>
C ambo
C alifor
C airo</w>
C aire</w>
C .</w>
Bu tterbrot</w>
Bel fast</w>
Bar bara</w>
Bar ack</w>
B ye</w>
B ur
B rown</w>
B ride</w>
B reand
B rasilia</w>
B ethesda</w>
B ert</w>
B ernard</w>
B erlin</w>
B askervilles</w>
B anque</w>
B amako</w>
B abyl
B RIC</w>
B BC</w>
As surez</w>
As seyez</w>
Arab ic</w>
Ar gent
Ar c
Appar ently</w>
Appar emment</w>
Ap puyez</w>
Ank i</w>
Ank ara</w>
An ticip
An tar
An na</w>
An n</w>
An drew</w>
An d</w>
Améric aine</w>
Am nesty</w>
Allem ands</w>
All ah</w>
Al low</w>
Al fred</w>
Al bi
Al aska</w>
Al ain</w>
Ak iko</w>
Ak agi</w>
Ak agawa</w>
Afri que</w>
Afri ca</w>
Ac croche</w>
A ïe</w>
A vatar</w>
A tom
A tlan
A th
A pollo</w>
A musez</w>
A muse</w>
A ll</w>
A lejandra</w>
A jou
A imeriez</w>
A délaïde</w>
A d
A chieving</w>
8 9</w>
8 8</w>
8 3</w>
8 .
8. 8</w>
7 89</w>
6 0
60 4</w>
4 2</w>
3 2</w>
201 6</w>
200 3</w>
200 1</w>
20 30</w>
20 00</w>
2. 0</w>
2 7</w>
198 5</w>
198 2</w>
198 1</w>
198 0</w>
197 4</w>
197 2</w>
197 0</w>
191 4</w>
191 2</w>
19 20</w>
18 88</w>
18 60</w>
1 789</w>
1 4</w>
1 3</w>
1 2</w>
&a mp;</w>
